#version: 0.2
h e</w>
i n
▁t he</w>
t i
e r
e n
e d</w>
a n
o n
a ▁
o r
o n</w>
▁o f</w>
a r
t ▁
e ▁
in g</w>
n d</w>
o u
e r</w>
o ▁
i ▁
e s
▁t o</w>
▁t h
e a
e s</w>
e c
i t
r o
i c
▁a nd</w>
o s
a l</w>
a ti
i s
i l
o r</w>
▁i n</w>
- @</w>
t h
o m
a l
e l
a t
a t</w>
@ -@</w>
u r
en t</w>
q u
a n</w>
▁i s</w>
t he</w>
a s</w>
t r
t s</w>
e n</w>
e m
p os
c e</w>
o t
o l
u s
v e</w>
t▁ he</w>
▁i n
a s
▁w h
a c
ati on</w>
l y</w>
i s</w>
i d
▁th at</w>
r e
n g</w>
i r
▁ e</w>
▁T he</w>
l e</w>
ot ;</w>
u c
i n</w>
t h</w>
i g
u l
r e</w>
u ▁
c h
▁f or</w>
pos ;
p ▁
a m
an d</w>
& a▁
▁o n</w>
ti on</w>
v er
e t
er e</w>
▁p ro
a g
f f
s ▁
qu ot;</w>
a y</w>
u n
r ▁
▁a s</w>
o f</w>
it h</w>
p l
▁i t</w>
i m
t o</w>
▁c on
▁b e</w>
t ed</w>
er s</w>
o o
▁r e
t er</w>
h ▁
&a▁ pos;
a▁ nd</w>
▁b y</w>
o c
r es
u t</w>
▁e x
o p
w ▁
▁s h
il l</w>
m ent</w>
o t</w>
u d
▁c om
o u</w>
s t
s e</w>
▁w ith</w>
i on</w>
▁h a
▁s t
o w
▁w as</w>
a b
p or
r i
it y</w>
e t</w>
c ▁
a d
on g</w>
▁a re</w>
e v
ou n
a p
p er
on s</w>
f ▁
l ▁
r ea
i c</w>
e▁ n
d ▁
s t</w>
t er
i▁ ng</w>
in ▁
at e</w>
al l</w>
i ti
▁w ill</w>
▁a l
u m
l d</w>
i t</w>
i d</w>
on g
a k
d uc
▁a t</w>
▁K or
ro m</w>
& quot;</w>
▁c h
a y
▁y ou</w>
f or
i v
e x
e e</w>
▁th e
ic e</w>
t y</w>
u b
m ▁
▁T h
c i
e a</w>
an ▁
▁, ,</w>
o w</w>
e d
ti ▁
▁b e
c on
▁ s</w>
c h</w>
&a▁pos; s</w>
e ar
an g
i z
th ▁
b ▁
▁ha ve</w>
p ro
ic h</w>
t ur
n ▁
y e
▁f rom</w>
ea r</w>
o ver
d s</w>
e p
r ou
s i
en ts</w>
p ec
i es</w>
en ▁
e g
▁r es
i m</w>
▁u n
▁h as</w>
u e</w>
on al</w>
c om
th er</w>
▁p l
a r</w>
▁a c
▁a n</w>
d ing</w>
ar y</w>
c l
ig h
en t
i r</w>
a t▁
▁I n</w>
e▁ r
▁p ar
▁C h
a in
▁n ot</w>
es s</w>
▁I t</w>
▁wh ich</w>
an ce</w>
t ing</w>
an t</w>
▁th is</w>
& a
▁t r
l l</w>
o▁ n</w>
t e</w>
▁p er
▁e n
s o</w>
▁w or
g ▁
d er</w>
o v
ou t</w>
▁o n
a id</w>
es t</w>
& ▁
th ▁e</w>
over n
▁o r</w>
e▁n t</w>
i al</w>
at ed</w>
g h</w>
g e</w>
▁ ed</w>
▁wh o</w>
a▁ r
u p
▁c an</w>
ag e</w>
ff ic
▁a n
▁com p
▁( (</w>
ou ld</w>
w i▁
uc h</w>
o▁ n
▁d is
or e</w>
▁a b
w h
es s
ea n</w>
▁ u
ati ▁
im e</w>
e w</w>
s s
ar e</w>
il l
▁sh all</w>
i f
▁b ut</w>
▁& quot;</w>
e l</w>
em ent</w>
▁Kor ea</w>
o▁ r
f ter</w>
a▁ n
e▁ d</w>
ou r
on ▁
an y</w>
s h
ti c
▁r ec
a us
in is
▁a d
ea d</w>
r e▁
▁& qu
o g
ol l
em b
o t▁
i▁ n
t en
▁a p
ye ong
▁ t</w>
i b
u ng</w>
in ce</w>
a in</w>
▁i m
k e</w>
ea s
as t</w>
u t
i t▁
o▁ t
an g</w>
ou r</w>
en ce</w>
ou s</w>
in g
e y</w>
tr y</w>
ak e</w>
e m</w>
▁th ere</w>
▁w ere</w>
▁h e</w>
ou ▁
▁f ir
op le</w>
▁W h
er v
am e</w>
ar ▁
m e</w>
o▁t ;</w>
u n</w>
f▁ or</w>
o d
▁t ime</w>
k s</w>
e ople</w>
▁b ec
▁c l
f or</w>
es ti
- ▁
▁be en</w>
▁y ear</w>
▁e v
0 0</w>
& qu
▁a g
-▁ @</w>
om e</w>
ec t</w>
a m</w>
p r
por t</w>
in e</w>
el y</w>
in▁ g</w>
cl ud
p▁ os
g i</w>
; s</w>
▁f or
k ing</w>
oo d</w>
▁i f</w>
tur e</w>
ot▁ ;</w>
e f
▁I n
or ▁
ati▁ on</w>
▁o r
aus e</w>
pos ▁
ub l
an d
▁s aid</w>
▁al so</w>
al ly</w>
@ -▁@</w>
s tr
a f
a d</w>
a ir
▁Kor ean</w>
th▁ at</w>
t▁ o</w>
▁r el
s ed</w>
iti es</w>
ro v
igh t</w>
for m
al l
▁s uch</w>
▁s o</w>
a v
b e</w>
ar d</w>
▁wh en</w>
ati ons</w>
ati onal</w>
q ▁u
▁p r
id e</w>
▁the y</w>
▁d o</w>
o▁ f</w>
▁the ir</w>
▁a fter</w>
o m</w>
▁p eople</w>
on e</w>
w▁ h
e▁ s</w>
▁m ore</w>
i ve</w>
a e</w>
e en</w>
p ar
res id
▁con t
or s</w>
om m
en c
o b
an▁ d</w>
▁K im</w>
@ ▁
e e
ad e</w>
u l</w>
▁a t
▁ ot;</w>
e▁ c
e▁ r</w>
ur e</w>
u m</w>
o▁ s
@▁ -@</w>
an c
b y</w>
t▁ h
ti v
▁th an</w>
an s</w>
c or
y ▁
o on</w>
pos ;</w>
▁p re
o o</w>
il e</w>
▁ab out</w>
▁S e
a ce</w>
o in
ea l
i ke</w>
er ▁
t u
▁G yeong
os t</w>
ab le</w>
▁d i
i l</w>
▁m e
u s</w>
us t</w>
it t
▁2 0
ar k
▁& a
▁fir st</w>
▁h ead</w>
▁in v
d i
▁ es</w>
e a▁
ubl ic</w>
el l</w>
C h
▁com m
overn ment</w>
w o</w>
▁f ac
▁pro v
an ag
▁s tr
▁w e</w>
▁Th is</w>
p en
pos; s</w>
ar t
▁h is</w>
t▁ er</w>
re e</w>
▁o ut</w>
i▁ n</w>
d ed</w>
it h
es e</w>
n ing</w>
▁a r
e w
al ▁
ay s</w>
▁m ay</w>
ver s
p res
s ti
▁s ec
p ol
▁in clud
▁u p</w>
ev el
▁A c
▁m y</w>
▁re g
al s</w>
▁h el
an s
s ec
l is
▁s ub
wi▁ th</w>
ci al</w>
▁s up
d us
▁m on
▁on e</w>
▁in ter
i ous</w>
m e▁nt</w>
t▁ ed</w>
s u
d er
ig n
ti▁ on</w>
▁bec ause</w>
▁p ol
i p
d is
▁pro duc
es t
▁con s
or y</w>
ig h</w>
▁e m
▁Gyeong gi</w>
g h
c rea
us in
K or
oo l</w>
g r
&a p▁os
rou gh</w>
▁s p
▁o ffic
▁I f</w>
▁c oun
ur r
▁s ch
t or</w>
il ▁
it e</w>
b l
or th</w>
ati ve</w>
o d</w>
as e</w>
ou l</w>
b er</w>
o p</w>
a▁ s</w>
e on</w>
▁i ts</w>
▁wh ere</w>
oo k</w>
▁l oc
i a</w>
w as</w>
ti ons</w>
▁al l</w>
ic al</w>
▁P ar
a il
a w
ow n</w>
S e
▁ h
a ve</w>
ti ci
&▁ a
▁ac c
▁A s</w>
▁per s
▁m e</w>
s ing</w>
▁ha d</w>
s ion</w>
o y
ic ▁
l ec
q▁u ot;</w>
▁o ther</w>
▁f in
os e</w>
ill ion</w>
▁G u</w>
▁st ud
ol d</w>
▁g overnment</w>
m s</w>
d r
▁q u
s u▁
w▁ as</w>
▁@ -@</w>
k ed</w>
pro v
▁p os
e ed</w>
et w
K ▁
y st
I n
▁d ue</w>
ear s</w>
a▁ t</w>
ea se</w>
por t
f r▁
▁d ec
a▁ l
e b
▁a m
en d</w>
at ing</w>
▁y our</w>
p r▁
▁o p
r ec
it s</w>
an n
u r</w>
▁W e</w>
ir ec
▁on ly</w>
, 0
s es</w>
e▁r s</w>
ti ve</w>
▁w ith
h ed</w>
▁w on</w>
g an
▁p ublic</w>
f er
▁l ea
a▁ re</w>
j u</w>
o▁ r</w>
ri v
▁m emb
▁Th ere</w>
in c
s i▁
▁S t
▁o per
▁p ur
th at</w>
▁t wo</w>
ing s</w>
▁includ ing</w>
ac k</w>
ac h</w>
en ti
▁th rough</w>
ou gh</w>
h e▁
s t▁
si b
i ed</w>
a i▁
ig n</w>
ul ar</w>
w▁h o</w>
ul t</w>
el l
r y</w>
ar ge</w>
▁U n
f ir
i tion</w>
▁p res
▁l ast</w>
▁N orth</w>
s pec
▁m at
▁un der</w>
tici p
▁d ay</w>
f l
e h
enc y</w>
gan iz
▁in crea
ec h
e ti
j ect</w>
▁s m
▁l ike</w>
▁t ea
in k</w>
itt ee</w>
S .</w>
resid ent</w>
▁P rov
evel op
e▁ re</w>
s el
r o▁
p h
i▁ ty</w>
S ▁
▁A r
ark et</w>
m inis
▁w ould</w>
i p</w>
▁k n
an ies</w>
▁f l
w h▁
wi▁ ll</w>
▁n um
et y</w>
a▁ n</w>
2 0
il ity</w>
v er</w>
sti tu
w ith</w>
▁M inis
v is
t ly</w>
ou th</w>
en▁ t</w>
▁d es
s s</w>
c er
▁n o</w>
at es</w>
▁d r
esti g
o▁ ng</w>
ter n
t ers</w>
cor ding</w>
&a▁ pos▁
v ▁
ex t</w>
r el
▁n ew</w>
en ter</w>
▁m any</w>
i▁ c
il y</w>
▁&qu o▁t;</w>
▁20 1
ff er
ent ly</w>
▁b u
ol og
i▁ ch</w>
u g
et ro
fr▁ om</w>
it ed</w>
id ed</w>
tr ▁
is t
▁m anag
▁Ch in
ff ice</w>
▁h igh</w>
i▁ s</w>
▁the m</w>
en d
com p
▁Wh en</w>
▁s pec
en er
d o</w>
e ther</w>
v i
▁num ber</w>
▁s erv
b e▁
ow ing</w>
p on
▁ex pec
▁m ed
i vers
a▁ c
▁d el
▁ap p
em s</w>
w or
ur ing</w>
ti▁ ng</w>
un ▁
k ▁
▁sh ould</w>
a▁ ll</w>
yst em</w>
usin ess</w>
ab lis
ro w
▁s c
▁rec e
ang e</w>
o▁ m
a▁ te</w>
v en
▁m ade</w>
▁v is
u tion</w>
▁C omm
ic ation</w>
ec ▁
e o
ar g
ap o▁s
if e</w>
a▁ l</w>
is e</w>
str uc
duc ation</w>
u p</w>
for e</w>
,0 00</w>
j ▁
iz ed</w>
▁loc al</w>
▁s e
ec ess
. S.</w>
etro pol
d ay</w>
o▁n s</w>
et ing</w>
ti f
▁&qu ▁ot;</w>
▁an n
p le</w>
ou nd</w>
us t
▁L ee</w>
▁comp anies</w>
w on</w>
m er</w>
r ap
ac t</w>
ic es</w>
&ap▁os ;
▁y ears</w>
ech n
a w</w>
▁in to</w>
▁hel d</w>
m an</w>
l l
▁Se oul</w>
ev er</w>
i ons</w>
▁com pl
rou nd</w>
i▁ al</w>
▁H e</w>
l oc
con om
▁u se</w>
d in
ow er</w>
▁p h
▁c ar
ou s
s c
as s
▁o ver</w>
t▁ s</w>
▁comp any</w>
ul tur
▁e st
t ro
s p
▁g r
▁c r
etw een</w>
▁T r
minis tr
re a</w>
f ac
at er</w>
&a▁pos; ▁s</w>
an ts</w>
on d</w>
▁pro c
&▁ qu
c▁ h
oc i
▁m ake</w>
▁t ake</w>
▁v ar
▁r ea
▁re qu
▁f oll
▁wor k</w>
er y</w>
ti es</w>
▁ch il
ver y</w>
▁d o
s id
▁b etween</w>
at▁ ion</w>
em ▁
▁ex per
is ▁
▁b as
o ve</w>
s ur
▁e ach</w>
▁ n
ud g
gh t</w>
▁sch ool</w>
h a▁
▁th ink</w>
▁sup port</w>
▁ap pl
▁N ational</w>
P rov
er e
c oun
▁st ar
y ing</w>
com m
el ec
▁m arket</w>
& q▁uot;</w>
u al</w>
▁or der</w>
a u
▁w ant</w>
▁in dus
&a▁pos; ▁t</w>
in v
er g
ecess ary</w>
▁P resident</w>
iz e</w>
s a▁
h▁ as</w>
▁t er
▁memb ers</w>
▁ev en</w>
j ec
▁d et
tic le</w>
es ▁
▁par ticip
▁wh ile</w>
i e
▁d ep
▁g o</w>
▁b usiness</w>
on▁ al</w>
▁s ince</w>
i▁ on</w>
el ▁
n ot</w>
rou p</w>
ou ng</w>
in d</w>
▁Ac cording</w>
&▁ quot;</w>
▁inv estig
i▁ ce</w>
v ir
▁at ten
▁Y ou</w>
f r
e ong</w>
▁s u
o▁ ut</w>
ch ▁
pl ▁
ol ▁
▁b r
il ities</w>
c ed</w>
m e
▁U .S.</w>
h as</w>
&a pos;s</w>
▁pro m
▁n ecessary</w>
▁&a pos;s</w>
ur es</w>
l i
w ill</w>
▁tr ans
▁d on</w>
i als</w>
&▁a pos;</w>
▁Prov ince</w>
1 ▁
wh i▁ch</w>
en g
▁g et</w>
e▁ n</w>
▁th ree</w>
m a▁
ay ing</w>
o l</w>
t▁ h</w>
▁c oll
▁est ablis
d e</w>
▁J ap
▁g o
▁f e
▁be ing</w>
at▁ ed</w>
▁f am
▁e ar
▁P l
▁res id
▁g ood</w>
▁s ystem</w>
&qu o▁t;</w>
is t</w>
▁c rea
u▁ r
▁d evelop
&qu ▁ot;</w>
pl oy
s e▁
t a▁
▁D o</w>
▁w ell</w>
ap p
▁Par k</w>
▁s ome</w>
▁A l
b u
▁in d
i ence</w>
▁S h
▁pers on</w>
re g
▁m a
y ear</w>
▁e t
u ation</w>
t a
ou se</w>
am p
▁per form
ul ▁
▁pl ace</w>
o k</w>
i▁ s
e o</w>
i▁ es</w>
tr ic
▁expec ted</w>
▁ al</w>
p re
h er</w>
sib le</w>
eas on</w>
▁&qu ot▁;</w>
▁a m</w>
▁i ss
▁a ss
▁c ould</w>
art ment</w>
e ed
s he</w>
▁r em
▁stud ents</w>
form ation</w>
w ay</w>
ak ing</w>
▁ er</w>
▁Minis try</w>
er m
▁o ur</w>
▁n ext</w>
an cial</w>
▁p oin
▁an y</w>
d y</w>
▁m ov
▁d irec
▁b el
▁c as
u▁ n
▁s ur
▁bu il
n am</w>
ati o▁n</w>
▁E n
▁pol ice</w>
al e</w>
▁1 0</w>
an▁ ce</w>
▁n eed</w>
▁manag ement</w>
e ts</w>
dr en</w>
▁h ea
▁O n</w>
p p
oun t</w>
tr ies</w>
▁m ost</w>
Kor e▁
m o▁
▁var ious</w>
▁c ase</w>
i onal</w>
o ther</w>
▁or ganiz
▁ac tiv
ti me</w>
▁e conom
y e▁
an k</w>
ab ▁
▁) )</w>
b▁ ut</w>
un g
on▁ g</w>
i▁ t</w>
ain ed</w>
▁g u</w>
▁s ame</w>
▁d uring</w>
en s</w>
▁ex c
▁t a
d iti
▁g u
; t</w>
▁r a
▁re por
b e
G yeong
▁be fore</w>
t e▁
▁Ar ticle</w>
▁tea m</w>
▁c er
▁pro bl
▁offic ial</w>
▁Chin a</w>
vir on
▁c or
p o▁s
iv ing</w>
n o▁
overn or</w>
our t</w>
or t</w>
om ▁
h o▁
pr o▁
th ing</w>
emb er</w>
oo per
p▁ l
▁F or
▁ann oun
▁a rea</w>
el d</w>
tr ib
▁b l
▁u sed</w>
▁wh at</w>
P ▁
r u
▁d ays</w>
▁m in
▁h ow</w>
en▁ ts</w>
sh ip</w>
n ed</w>
d▁ er</w>
i od</w>
s on</w>
ff ▁
▁e l
as s</w>
oc ial</w>
▁A t</w>
h▁ is</w>
air s</w>
ultur al</w>
▁S outh</w>
▁at t
▁cont in
it al</w>
o or</w>
m ents</w>
l i▁
▁al l
p s</w>
ic y</w>
▁e ff
e ong
&a▁pos; t</w>
r ed</w>
p o▁r
▁m illion</w>
▁w r
T he</w>
olog y</w>
&qu ot▁;</w>
ac ▁
▁l ot</w>
af t▁er</w>
▁pro ject</w>
▁s l
ti o▁n</w>
▁n ow</w>
ain ing</w>
f rom</w>
l es</w>
▁di ffer
un d
▁C on
▁a s
l e▁
op e</w>
g u</w>
ul ture</w>
▁me eting</w>
C ▁
th is</w>
h is</w>
i um</w>
o o▁
▁e lec
w n</w>
us ▁
▁1 9
f f</w>
▁s it
ch eon</w>
t ain</w>
ic s</w>
o▁ ul</w>
in▁ ce</w>
▁di ffic
e x</w>
y p
ib er
K im</w>
▁g ener
M ▁
a▁r y</w>
A ▁
th er
▁ex pl
si ve</w>
▁mon th</w>
ivers ity</w>
▁res pon
▁c urr
▁a ff
m is
s aid</w>
o b</w>
&a▁pos▁ ;s</w>
o k
wh o</w>
▁v i
y ou</w>
f ul</w>
▁l ong</w>
▁par tic
m e▁
&a pos;</w>
ag rap
it an</w>
▁“ “</w>
▁pl an</w>
▁h er</w>
▁C ity</w>
▁kn ow</w>
▁P ro
▁A m
ear ch</w>
▁t ri
com e</w>
▁wor ld</w>
m on
t ors</w>
c .</w>
iv ed</w>
o w▁
▁f i
K or▁
▁con cer
&a▁ po▁s
an t
od ay</w>
o ti
is h
c ri
▁rel ated</w>
▁con duc
▁A ss
th e▁
▁with out</w>
sel f</w>
▁d em
&a▁pos; m</w>
u▁ re</w>
id ent</w>
ha▁ ve</w>
ow ed</w>
l ed</w>
m ed</w>
▁s al
▁in formation</w>
is m</w>
n▁ ot</w>
m y</w>
l a▁
rou ▁
r i▁
m ed
ev ▁
c o▁
is h</w>
em e▁nt</w>
▁sm all</w>
▁foll owing</w>
anc es</w>
w ang
▁produc ts</w>
ot al</w>
▁with in</w>
▁a round</w>
▁H y
▁e ducation</w>
en tr
▁Pl ease</w>
s an</w>
▁f u
▁Comm ittee</w>
s▁ t
▁fac t</w>
▁ex p
en t▁
▁w ee
e t▁
▁f r
d u
y m
oc k</w>
f o▁r</w>
ic k
2 ▁
▁partic ular</w>
s h▁
ac k
om en</w>
is ion</w>
c c
it ing</w>
▁c ity</w>
▁l arge</w>
K▁ or
▁s ee</w>
in d
th ough</w>
▁o ffice</w>
▁serv ice</w>
ab or</w>
▁b o
a ir</w>
al ity</w>
▁sec ond</w>
t ment</w>
di tion</w>
s erv
ci l</w>
Se o▁ul</w>
▁j ust</w>
ow s</w>
a▁ tion</w>
▁re f
▁r ight</w>
▁d id</w>
▁o ut
il it
▁ev ent</w>
en se</w>
al y
L ▁
▁c o
f i▁
▁g row
l▁ y</w>
U n
ati on
h ave</w>
k ers</w>
▁resid ents</w>
▁ch ec
ul t
af ety</w>
s▁ h
▁Ac t</w>
a e
ent al</w>
overn me▁nt</w>
▁pr ice</w>
▁O r
c us
struc tion</w>
b ut</w>
eal th</w>
▁pre v
d e▁
▁indus try</w>
s up
▁l ife</w>
▁m eas
for m</w>
Kor▁ ea</w>
e ign</w>
m it</w>
▁d e
ro w</w>
▁f ood</w>
iti z
h ere
ea l</w>
ust om
i an</w>
por ts</w>
um p</w>
ai▁ d</w>
▁be g
▁h igh
as ▁
▁b ro
er ing</w>
all ed</w>
▁pro f
& apo▁s
t▁h at</w>
s ide</w>
▁m uch</w>
v en</w>
re t
Kore▁ an</w>
Kor ea</w>
ur ▁
es ted</w>
▁M oon</w>
▁s ol
y ung</w>
▁spec ial</w>
ag es</w>
▁cas es</w>
▁t otal</w>
a k</w>
ea s</w>
▁per iod</w>
s l
▁coun try</w>
▁s ti
l ine</w>
▁ p
n e▁
at t
i k
▁cons id
ati on▁al</w>
▁fac ilities</w>
os p
▁f il
o▁ l
▁increa se</w>
s ung</w>
▁e nd</w>
at ely</w>
▁ th</w>
ar ds</w>
b een</w>
i or</w>
a z
iz ation</w>
v ing</w>
▁ma j
b ▁e</w>
im es</w>
▁m us
h y
a p▁
th▁ er</w>
ee p</w>
ati c</w>
g u
▁chil dren</w>
▁ter m</w>
v es</w>
▁w ay</w>
▁Th at</w>
▁t echn
▁A n
i e</w>
n er</w>
th s</w>
t▁ r
o i</w>
tr ac
▁wh ether</w>
us e</w>
uc c
▁f ri
▁am ong</w>
at a</w>
i g</w>
▁v ery</w>
a u▁
ow ever</w>
ain st</w>
m ak
ec tion</w>
▁f un
▁in st
an u
▁p op
ot h</w>
oo m</w>
o p▁
un ity</w>
▁re port</w>
▁r ate</w>
a▁ ge</w>
▁o b
pos e</w>
▁ex pen
here in
▁oper ation</w>
al f</w>
ch ed</w>
en▁ ce</w>
el f
C omm
or k</w>
▁A fter</w>
▁announ ced</w>
▁r eal
ti l</w>
▁un der
pos▁ ;s</w>
a▁ m
▁h ear
ul ts</w>
b le</w>
agrap h</w>
▁G overnor</w>
▁th ▁e</w>
▁Par ty</w>
u te</w>
us an</w>
ac c
▁g rea
jec ts</w>
t▁ y</w>
air man</w>
0 ,000</w>
▁g l
in cial</w>
pl em
d i▁ng</w>
u th
d ic
b u▁
▁produc t</w>
▁ad v
oc r
▁f ound</w>
z e</w>
▁des ign
il▁ l</w>
M etropol
a ff
▁b illion</w>
ak es</w>
ar t</w>
ot e</w>
c r
d i▁
con ▁
▁pl ay
ew s</w>
y o▁
G ▁
▁th ese</w>
u▁ c
▁th ose</w>
it▁ an</w>
ac h
▁ch ang
▁o cc
▁Wh at</w>
pres ent
ep t</w>
▁investig ation</w>
ar m
an ese</w>
▁g roup</w>
▁J e
iti ▁
T ▁
d en</w>
▁e as
ac hed</w>
p ri
▁G ang
R W</w>
og ether</w>
ffic i
om e
▁proc ess</w>
in es</w>
u ty</w>
l o▁
▁S am
n▁ d</w>
▁re v
▁et c.</w>
c ent</w>
w ard</w>
ut es</w>
r em
. ▁
is ed</w>
▁in stitu
ol e</w>
w▁ on</w>
eas ed</w>
a i</w>
▁for mer</w>
th a▁t</w>
od y</w>
l▁ ed</w>
en s
▁in tro
▁t al
ev el</w>
▁E x
▁fin ancial</w>
an ding</w>
▁w ater</w>
▁e very</w>
a▁ t
▁r o
▁u s</w>
▁s aying</w>
it▁ h</w>
ar k</w>
t▁ ion</w>
▁r et
igh ts</w>
▁Al though</w>
o y</w>
i▁ l
h ib
i▁ d
▁d oc
▁inv est
c o▁n
▁c enter</w>
▁cont ro
▁in ten
o▁n e</w>
N ▁
▁s us
p ly</w>
▁develop ment</w>
er ▁s</w>
▁b udg
▁H owever</w>
e▁ ss</w>
▁s ign
in ter
▁s ay</w>
s ch
▁o pen
ie f</w>
▁perform ance</w>
▁mat ters</w>
▁am ount</w>
i ev
c es</w>
w▁ ill</w>
in ation</w>
▁i d
▁ex am
▁im port
he▁ ad</w>
b▁ er</w>
▁ch arge</w>
▁pur su
m▁ an</w>
K▁ im</w>
▁d ef
▁h im</w>
d ers</w>
ob al</w>
en ds</w>
▁U S</w>
enti al</w>
s um
▁com e</w>
tic s</w>
s ai▁d</w>
▁repor ted</w>
▁ ot▁;</w>
e▁c t</w>
▁diffic ult</w>
be▁ en</w>
▁r eason</w>
din ance</w>
▁ch ange</w>
s ub
▁u s
d▁ ed</w>
u es</w>
D ▁
▁s k
ar ac
v ed</w>
ur ity</w>
▁par ty</w>
eg al</w>
▁ad ministr
ul l</w>
esti v
▁pro t
u ed</w>
in ed</w>
▁st at
ec ted</w>
▁s ocial</w>
m en▁t</w>
a▁n t</w>
w e▁
▁par t</w>
er ed</w>
ou▁ ld</w>
riv ate</w>
p ing</w>
ef t</w>
s e
etropol itan</w>
u▁ l
▁a ud
i ver
▁h ome</w>
▁bec ome</w>
▁& q▁uot;</w>
n s</w>
▁i t
▁n o
an ds</w>
m .</w>
▁probl em</w>
▁ag ain</w>
▁en tr
emb ly</w>
ea t</w>
in al</w>
if ic
▁fir e</w>
pl o
m anag
▁hel p</w>
at ur
▁l o
f t
ou ght</w>
& q▁u
n ow</w>
▁en ter
▁t rea
s o▁
sa▁ id</w>
r d</w>
et ter</w>
▁con struction</w>
▁ad dition</w>
▁pro sec
▁o ver
▁h ere</w>
ev ant</w>
▁wor king</w>
pos; ▁s</w>
▁C enter</w>
▁ag re
tr ial</w>
▁c ustom
b e▁c
esti c</w>
b▁ y</w>
▁fam ily</w>
▁offic ials</w>
S t
ti c</w>
▁pro gr
▁J ae</w>
oun d
on t</w>
▁s elec
▁b ack</w>
▁Th ey</w>
c▁ an</w>
l s</w>
▁sh ar
▁pos sible</w>
▁h um
▁prov ide</w>
rea s</w>
c an</w>
H ▁
for m▁
ir e</w>
du ce</w>
▁F or</w>
e▁ x
m▁ ent</w>
p ed</w>
20 1
▁par agraph</w>
▁ ts</w>
ov ▁
▁sit uation</w>
▁coun tries</w>
▁ag ainst</w>
▁M y</w>
fer red</w>
our s</w>
er ▁e</w>
f▁ f
▁comp eti
▁u sing</w>
▁differ ent</w>
s m
▁2 0</w>
▁go ing</w>
▁a uth
▁wh y</w>
u▁ n</w>
a▁ y</w>
▁inter n
▁Jap an</w>
oin t</w>
Metropol it▁an</w>
ain s</w>
▁m od
ug g
ou▁ n
f in
en ted</w>
d le</w>
▁con fir
▁n ational</w>
▁d am
c as
d ep
▁sti ll</w>
w o▁r
▁w at
▁m ain
c a▁
▁d om
▁S ince</w>
▁sal es</w>
▁p as
▁M ar
ir ed</w>
r▁ ed</w>
▁th ▁
at ure</w>
d ec
▁compl et
▁s et</w>
s▁ ed</w>
A ss
eh ic
i o▁n</w>
▁rec or
▁s im
▁p ower</w>
▁maj or</w>
p▁ le</w>
▁d ata</w>
▁rece ived</w>
id ▁
▁Tr ump</w>
oun ▁
a▁ ng</w>
▁B usan</w>
is ts</w>
tric t</w>
ea m</w>
iv es</w>
k i▁ng</w>
B ▁
uc l
▁t oday</w>
▁Chin ese</w>
ig ▁h
ul ation</w>
▁inter est</w>
ir ▁
si a</w>
n ess</w>
▁d own</w>
▁en viron
o ol
i o</w>
duc ed</w>
t o▁
▁c aus
▁mon ey</w>
▁P ol
▁s he</w>
i▁ ts</w>
▁th en</w>
ch ing</w>
▁J ung</w>
▁an aly
▁c ap
po▁r t</w>
t▁ or</w>
ea d
w ere</w>
ar s</w>
air per
▁C oun
is sion</w>
ri ed</w>
▁m ain</w>
on ed</w>
▁g ive</w>
▁memb er</w>
▁3 0</w>
▁in c
pos ed</w>
w e▁re</w>
▁In tern
iv id
▁pre par
ye ong</w>
vi ew</w>
lis h</w>
▁pursu ant</w>
em ocr
▁meas ures</w>
▁a reas</w>
o tion</w>
th▁ is</w>
▁dep artment</w>
iv ▁
▁s er
▁import ant</w>
en ing</w>
▁Sam sung</w>
elf are</w>
tr uc
▁rel evant</w>
▁Minis ter</w>
r a▁
a p</w>
▁f our</w>
ov er</w>
on ▁s</w>
sib ility</w>
c o▁m
▁bas ed</w>
▁for eign</w>
▁p ay</w>
rea dy</w>
▁e qu
▁r oom</w>
i▁ t
▁econom ic</w>
▁p rivate</w>
▁c ame</w>
o▁ us</w>
tr act</w>
c t</w>
▁res ult</w>
a un
on y</w>
▁f ive</w>
u nd</w>
▁att ached</w>
▁ n</w>
▁p ay
▁em ploy
in clud
▁un til</w>
b ec
C h▁
▁Jap anese</w>
ti▁ me</w>
▁Un iversity</w>
am ▁
a il</w>
▁per cent</w>
t e▁r
estiv al</w>
re a▁
▁l oo
ur n</w>
▁dec ided</w>
h av
e▁ st</w>
▁G wang
▁Wh ere</w>
▁fu ture</w>
su▁ ch</w>
▁h ol
ex p
▁t imes</w>
▁w omen</w>
ti ce</w>
▁l ear
i x</w>
itiz ens</w>
J ▁
▁ab le</w>
ilit ary</w>
▁w in
▁b est</w>
ec u
h i▁
am es</w>
▁res ults</w>
el s</w>
▁v al
ev en</w>
res s</w>
▁chec k</w>
▁h ope</w>
▁increa sed</w>
▁Or dinance</w>
th▁ ey</w>
▁t oo</w>
G overnme▁nt</w>
is ing</w>
▁O n
wh▁ en</w>
▁A n</w>
▁t ogether</w>
re d
▁med ia</w>
p e</w>
▁n eed
▁ear ly</w>
e ir</w>
it▁ y</w>
n o</w>
▁in spec
f o▁r
▁l im
con t
n▁ g</w>
ep ar
▁n eg
ver y
v ▁e</w>
▁w ar
▁budg et</w>
E n
pro duc
m it
f o▁
o s</w>
is tr
y▁ ou</w>
▁gener al</w>
▁ st</w>
▁exper ience</w>
as ter</w>
▁vis it</w>
▁activ ities</w>
▁pur pose</w>
▁s um
▁ta x</w>
▁s ome
▁t em
m in
&▁qu o▁t;</w>
o h
tur es</w>
p o▁
0 th</w>
▁h alf</w>
▁atten tion</w>
a fter</w>
▁p ic
▁En g
d es
▁t ook</w>
▁pl ans</w>
ay or</w>
▁im prov
o ffic
▁comm ittee</w>
▁c ulture</w>
p a▁
es ts</w>
▁do es</w>
▁l aw
▁b ur
n ew</w>
er ation</w>
c al</w>
at eg
al▁ so</w>
in dus
ir d</w>
▁m ust</w>
g r▁
un ic
t▁ ry</w>
re qu
▁op in
id n</w>
▁w ea
ic▁ h</w>
b as
ub l▁
r ic
id dle</w>
▁l eft</w>
a in▁
pos ition</w>
g s</w>
s▁ o</w>
▁c ooper
▁rea l</w>
▁sur v
▁y oung</w>
iti ▁es</w>
. m.</w>
▁&a pos;</w>
▁F in
w a▁s</w>
▁p ast</w>
or ity</w>
▁r ul
el f</w>
ex ▁
A r
w il▁l</w>
u le</w>
e e▁
l▁ d</w>
▁grea t</w>
y s</w>
ye es</w>
▁tr ad
▁l evel</w>
▁p aid</w>
▁s ucc
a th
▁g ame</w>
th▁ an</w>
▁s afety</w>
▁s ite</w>
▁ph ot
ib le</w>
and id
▁u r
il i
the▁ ir</w>
i▁n e</w>
w ays</w>
L ee</w>
1 9
a▁n y</w>
▁st and
▁ex pres
▁cons um
▁l ow</w>
▁S up
l ike</w>
no▁ t</w>
▁wee k</w>
▁j ob</w>
or ganiz
▁o ff</w>
▁w ent</w>
▁h ard</w>
oc ▁
▁st or
yo▁ u</w>
▁mat er
y e</w>
is si
▁E ducation</w>
E O</w>
▁en j
▁H ow</w>
▁m ar
▁fin d</w>
▁c ol
ar ed</w>
i al
▁c iv
or▁ th</w>
p▁os ;s</w>
C ▁h
ann ot</w>
▁E ven</w>
on om
▁S ec
m ore</w>
us ed</w>
▁c ar</w>
d irec
▁expen ses</w>
ool s</w>
▁dom estic</w>
e▁ m
res ▁
i▁ g
t or
▁vi ol
▁prov ince</w>
b r
d r▁
ir st</w>
▁iss ue</w>
▁s end</w>
▁A d
▁buil ding</w>
▁S erv
th ers</w>
▁requ est</w>
▁pol icy</w>
e et</w>
▁h ouse</w>
ti s
sh a▁ll</w>
per ▁
▁t our
h▁ er</w>
▁m aking</w>
a▁ r</w>
▁N ew</w>
▁pl ease</w>
at ten
▁l abor</w>
fir ▁st</w>
▁v id
▁h ou
▁on ce</w>
▁K RW</w>
▁ch arac
▁n ame</w>
ad ▁
▁c alled</w>
e duc
at or</w>
▁fe el</w>
K o▁
iz ▁ed</w>
p re▁
a ther</w>
u▁ ng</w>
s y
en ter
▁pur ch
ab▁ le</w>
is ting</w>
▁ev al
▁re present
▁pres cri
ati o▁ns</w>
in a</w>
▁v ehic
▁b rea
▁sub sid
ear ▁
un▁ g</w>
▁aff airs</w>
0 s</w>
▁pro jects</w>
g o</w>
▁h ours</w>
h a▁s</w>
l ea
et t
ar ding</w>
ar ▁e</w>
▁h ist
▁wor kers</w>
▁20 0
id es</w>
eo p▁le</w>
ubl▁ ic</w>
▁det erm
b ed</w>
▁re p
f am
▁s ing
si an</w>
em ents</w>
d ong</w>
▁f oc
y u</w>
w e</w>
as te</w>
ess es</w>
▁v ol
tr on
ul ly</w>
ye▁ ar</w>
h ead</w>
▁sh ow</w>
plo yees</w>
h ▁e</w>
z ed</w>
ti c▁
▁W or
▁W ith</w>
▁c ou
ir c
▁o w
op er
▁t yp
ie ve</w>
▁techn ology</w>
or m
▁m or
t wo</w>
l ing</w>
▁D a
t e▁d</w>
2 0</w>
▁app ly</w>
▁prosec ution</w>
u k</w>
▁a ut
oci ation</w>
▁ex ch
d en
▁b ea
ac es</w>
sur ance</w>
s ure</w>
rou▁ gh</w>
▁em erg
pos▁ ;</w>
P ro
5 th</w>
y o</w>
▁rece ive</w>
i f</w>
s p▁
▁se ems</w>
▁rel eased</w>
▁curr ent</w>
l ▁e</w>
▁appl ication</w>
ag ▁
▁con c
l▁ l</w>
▁s w
at▁ e</w>
▁dis cus
d o▁
as h
es si
v i▁
i e▁s</w>
1 0</w>
▁l aw</w>
▁su per
ar▁ ty</w>
▁l ik
▁C om
l d
st ud
ro▁ m</w>
e▁ ly</w>
ous ly</w>
s▁ on</w>
▁c os
s▁ t</w>
▁p ut</w>
▁al ready</w>
ac tiv
enc es</w>
▁pay ment</w>
▁M etropolitan</w>
ent ary</w>
tic al</w>
at▁ ional</w>
un e</w>
wh▁ o</w>
l ess</w>
ch ool</w>
▁expl ained</w>
R ▁
▁fr ont</w>
i qu
▁C ourt</w>
O r
f ri
▁o wn</w>
for ▁
ti m
s w
em ony</w>
e er</w>
▁prov incial</w>
oo ds</w>
ati▁ ve</w>
p▁ ro
iv en</w>
erg y</w>
▁D ec
a▁r d</w>
C on
▁R es
h igh</w>
ret ary</w>
a▁n s</w>
▁res earch</w>
▁c our
oci ety</w>
re fer
▁c ri
mo▁ re</w>
re en</w>
og n
▁b ody</w>
▁l ook</w>
b o
▁in t
ar i
Se oul</w>
▁& apo▁s
8 th</w>
▁c annot</w>
e▁ t</w>
Prov in▁ce</w>
p a▁r
m at
▁poin t</w>
in s
au▁ se</w>
▁g ot</w>
ig▁h t</w>
▁h ealth</w>
all s</w>
▁m an
▁c ultural</w>
▁re ferred</w>
▁d ate</w>
▁D is
▁star t</w>
tif ic
7 th</w>
▁pr ices</w>
▁Ass embly</w>
▁m ilitary</w>
▁conduc ted</w>
▁mus ic</w>
g er</w>
▁ha pp
an ks</w>
▁v ic
ous eh
w ang</w>
p ur
e▁ l
▁a v
▁pl an
tu al</w>
um ▁
stitu te</w>
▁mon ths</w>
▁med ical</w>
airper son</w>
▁s en
o ff
u b</w>
▁im plem
u ally</w>
ex pec
itt le</w>
▁gl obal</w>
▁sch ed
amp ;</w>
4 th</w>
▁str ong</w>
▁f ree</w>
▁invest ment</w>
▁grow th</w>
pro ve</w>
3 ▁
im ▁
em p
ig h▁
wh ich</w>
&a▁pos▁ ;t</w>
fr as
▁rec omm
osp ital</w>
es t▁
k er</w>
▁O ffice</w>
▁ac cording</w>
or row</w>
▁se ver
ati s
g y</w>
n ov
l ast</w>
med i
▁tr av
ul ar
▁me ans</w>
it t▁
▁S o</w>
com pl
por ation</w>
▁u n</w>
▁p ri
s ol
er c
e es</w>
al▁ l</w>
▁P r
al so</w>
c▁ ed</w>
▁b oth</w>
▁Pol ice</w>
es s▁
▁me th
▁d riv
▁Eng lish</w>
i ally</w>
a▁r s</w>
▁Ch airman</w>
▁c ourt</w>
em or
ou▁ r
. 5</w>
al▁ ly</w>
▁G overnment</w>
b usin
▁I s</w>
▁p er</w>
▁d iv
▁f ull</w>
en e</w>
▁l et</w>
p e▁
ai▁ r
N ation▁al</w>
comp an
▁l ess</w>
▁h ar
▁et c</w>
en ef
tr ans
g over
es ter
▁under st
▁pol iti
▁Ch oi</w>
▁c are</w>
▁l aun
▁D ep
▁m is
▁B ut</w>
l o
d el
inc ▁e</w>
N or▁th</w>
▁o ld</w>
1 st</w>
▁ex hib
iv er</w>
▁ta x
▁S u
a im
e on
▁str eng
p▁ er
▁c itizens</w>
y ang</w>
ta ur
d▁ uc
d▁ s</w>
▁H ong</w>
▁R ep
▁c ost</w>
▁st ate</w>
▁econom y</w>
ail s</w>
▁agre ement</w>
n i▁ng</w>
c ement</w>
r a
anu fac
▁s ide</w>
trib u
▁Th en</w>
f i
refer r▁ed</w>
▁pro per
d▁ ue</w>
▁th ings</w>
▁i ll
am s</w>
▁wh ▁
▁a f
ay ▁
▁as ked</w>
▁M ay</w>
is es</w>
▁b ig</w>
o▁r s</w>
▁C an</w>
c y</w>
▁l ive</w>
ang u
Gyeong ▁
3 0</w>
▁op en</w>
▁gr ad
c t
▁cl os
un t
&qu ▁ot▁;</w>
ess ed</w>
▁l iving</w>
▁serv ices</w>
i▁c t</w>
ep t
▁F r
duc tion</w>
c l▁
d ance</w>
▁ag ency</w>
6 th</w>
▁hum an</w>
▁s epar
wor k</w>
p er</w>
ov ▁er</w>
▁t ak
bu▁ t</w>
▁em ployees</w>
a▁l s</w>
M inis
20 ▁
▁d idn</w>
▁t op</w>
ft en</w>
u ro
p e▁r
▁Wh ile</w>
0 ▁
o ice</w>
▁environ ment</w>
▁m ark
ch er</w>
ti o▁ns</w>
w it▁h</w>
m or
er al</w>
▁direc tor</w>
en t▁s</w>
K▁or ean</w>
▁me et</w>
▁Un ited</w>
▁particip ate</w>
u ly</w>
im um</w>
pro f
&▁qu ot▁;</w>
om s</w>
ym p
o▁r y</w>
▁g overn
▁a ▁s</w>
▁establis h</w>
ti onal</w>
g▁ u</w>
on es</w>
5 0</w>
▁p ubl
er n
W e</w>
j in</w>
ail ed</w>
herein aft▁er</w>
et ting</w>
▁establis hed</w>
ic t</w>
pr▁ o
▁In cheon</w>
▁H an
▁& ▁
re f
m ing</w>
i▁ le</w>
d▁ o</w>
▁selec ted</w>
▁produc tion</w>
n el</w>
▁t est</w>
▁h and
▁vid eo</w>
▁b ook</w>
▁star ted</w>
P ar
▁c anc
n ers</w>
bu k</w>
e▁ on</w>
▁p en
▁establis h
▁app oin
I t</w>
air m▁an</w>
en t▁er</w>
▁l ove</w>
&▁qu ▁ot;</w>
t ain
▁b oo
▁prov ided</w>
▁tr ade</w>
▁del iber
▁a w
d e
▁kn own</w>
e▁ s
▁m an</w>
F ▁
m ark
C om
&a▁pos; ▁
▁acc ident</w>
▁Coun cil</w>
▁ad diti
▁rec ently</w>
a▁ ce</w>
▁acc oun
ab ility</w>
▁fi eld</w>
▁chil d</w>
hav ▁e</w>
ess or</w>
er ic
ay ed</w>
▁an other</w>
▁D ong</w>
g et</w>
▁ f</w>
fras truc
at ory</w>
um ents</w>
▁mov ie</w>
a▁ g
▁1 5</w>
w▁ ith</w>
▁S ome</w>
▁pers ons</w>
p are</w>
▁R eg
la▁ st</w>
e ung</w>
ess ion</w>
c▁ h</w>
▁l ed</w>
eal ed</w>
▁lik ely</w>
ob ile</w>
p ic
b o▁
▁1 00</w>
&a pos▁;s</w>
ill age</w>
m o
▁Serv ice</w>
L▁ ee</w>
▁a way</w>
eo k</w>
o▁ re</w>
▁M ayor</w>
ec ts</w>
i▁ ll
y n
▁p resident</w>
▁pl ay</w>
▁crea te</w>
entr al</w>
▁s oon</w>
▁bec ame</w>
▁administr ative</w>
resid e▁nt</w>
ex per
ud ▁
w an</w>
ur ch</w>
▁cer emony</w>
T r
ul ations</w>
▁sub ject</w>
Gyeong▁ gi</w>
iz ing</w>
▁Y es</w>
in t
m ost</w>
▁tr aining</w>
▁f ine</w>
ill s</w>
ci es</w>
▁con tract</w>
▁h old</w>
o▁ w
iti onal</w>
; m</w>
u▁ s
▁confir med</w>
eg ▁
▁S p
ob s</w>
e ff
&ap▁os ▁
al k</w>
▁n ew
e qu
▁s ent</w>
▁e very
o▁ on</w>
▁me an
▁dr am
pro c
d▁ ay</w>
re v
n▁ ed</w>
▁poin ted</w>
all ing</w>
▁In dus
w or▁
i et
eg e</w>
▁dem and</w>
▁con diti
ou ▁t</w>
em e</w>
▁progr am</w>
ther n</w>
▁beg an</w>
▁t ▁
&apo▁s ;s</w>
pri l</w>
fer ence</w>
▁stud y</w>
▁prev ent</w>
▁dam age</w>
g o▁
▁o ften</w>
em ed</w>
f▁ or
c▁ l
▁sch ools</w>
▁pop ular</w>
ch ers</w>
▁J ong</w>
re es</w>
a▁ b
▁open ing</w>
▁Je ju</w>
c▁ on
in ess</w>
▁or ig
▁B r
ag ed</w>
c ar
mit ted</w>
he▁ ld</w>
▁par ents</w>
is hed</w>
ur i▁ng</w>
e um</w>
b an</w>
▁l ate</w>
y our</w>
▁w a
ti▁ ve</w>
▁probl ems</w>
h ad</w>
c o
▁t aking</w>
▁in come</w>
ent ation</w>
ti l
▁pr in
in ten
▁competi tion</w>
t ory</w>
d u▁c
▁organiz ations</w>
▁c ause</w>
ch es</w>
bu il
▁b etter</w>
▁a ir
ot ing</w>
▁st ock</w>
E ▁
loc al</w>
▁ex ecu
f er</w>
h▁ ad</w>
▁mor ning</w>
▁loc ated</w>
▁fl oor</w>
om orrow</w>
s it
▁th ought</w>
m emb
A ct</w>
▁cl ass</w>
Kor ean</w>
▁s elf</w>
▁p at
an k
▁l ine</w>
par ticip
oc al</w>
ic▁ al</w>
▁pr ac
e o▁
w ▁e</w>
em b▁er</w>
▁al ong</w>
▁im prove</w>
w ith
; ▁s</w>
e p</w>
t u▁
r is
f oll
▁pre dic
▁C or
urr ed</w>
▁sp ace</w>
includ i▁ng</w>
▁vis ited</w>
con s
g ency</w>
ip ment</w>
th an</w>
▁u p
▁m iddle</w>
▁al ways</w>
rea d</w>
▁caus ed</w>
s is</w>
ail y</w>
▁E lec
ill i▁on</w>
g o
▁n ight</w>
mis sion</w>
▁T o</w>
&a▁po▁s ;s</w>
g est</w>
▁t ur
▁con ven
▁p ati
▁th ird</w>
ic ies</w>
ec ause</w>
P a▁r
r .</w>
m eas
ed ly</w>
o▁ p
n▁ ew</w>
as t
th r▁
▁organiz ation</w>
as ed</w>
▁5 0</w>
▁ind ivid
▁pre pare</w>
▁min utes</w>
▁con n
&a pos;
ill ed</w>
S h
▁intern ational</w>
▁Gwang ju</w>
▁res taur
▁contin ue</w>
l and</w>
rel at▁ed</w>
ot el</w>
▁trea tment</w>
c ooper
h o</w>
e f</w>
on al
i▁ n▁g</w>
▁exper ts</w>
i b▁
▁v er
▁a ir</w>
▁des ign</w>
ver age</w>
p ubl▁ic</w>
▁inspec tion</w>
▁K ang</w>
d evel
▁ch arg
▁sh ort</w>
▁res ol
▁Y oung</w>
im in
if ication</w>
ati▁ ng</w>
G ang
m an
inv estig
ld n</w>
▁sh owed</w>
▁comm unity</w>
▁1 2</w>
e▁r y</w>
th rou▁gh</w>
▁c ard</w>
ic ▁e</w>
ch il
▁l arg
▁D emocr
G u</w>
e▁ nd</w>
a▁n ce</w>
ib r
▁in surance</w>
▁w elfare</w>
▁institu tions</w>
▁f ar</w>
f t</w>
▁auth or
t echn
ex c
▁t ell</w>
▁l ittle</w>
d et
▁o vers
a▁ me</w>
ad v
id ay</w>
▁Comm ission</w>
it al
▁a ge</w>
▁In stitute</w>
v y</w>
id ing</w>
▁qu ality</w>
J ap
▁additi onal</w>
▁in fl
▁1 1</w>
wh e▁re</w>
▁n atur
c oll
▁hist ory</w>
or ts</w>
i▁ ll</w>
▁chang ed</w>
id ents</w>
▁lea st</w>
ci ence</w>
anc ▁e</w>
rem e</w>
w▁h ich</w>
ound ation</w>
iti▁ on</w>
per s
o g▁
ap er</w>
o th
em ploy
▁b loc
▁l os
eg r
ro ss</w>
▁Mar ch</w>
cl os
▁Ch o</w>
g ue</w>
▁bas ic</w>
▁s em
i▁ m
▁j udg
ow n
▁S he</w>
en ess</w>
▁T a
si▁ on</w>
b or
▁bro ad
▁an y
ou▁ nd</w>
▁no tif
▁1 1
w o▁n</w>
▁appl ied</w>
▁fe es</w>
und ai</w>
res pon
▁1 0
it er
▁st ore</w>
u t▁
▁prev ious</w>
▁For m</w>
iti ve</w>
▁direc tly</w>
e▁ en</w>
▁g iven</w>
▁re vis
ac y</w>
f ied</w>
▁c irc
▁Wor ld</w>
at ors</w>
itt en</w>
es ▁s</w>
▁b us</w>
p eop▁le</w>
h▁ ed</w>
&q▁u o▁t;</w>
▁b enef
▁n ews</w>
▁ad ded</w>
▁l and</w>
anufac tur
ter ed</w>
▁play ers</w>
ap e</w>
m a
itt▁ ee</w>
▁r is
▁rec ogn
h▁ ave</w>
▁ex isting</w>
cl es</w>
▁enj oy</w>
in king</w>
▁ha ving</w>
▁c andid
p tion</w>
if ied</w>
m os
▁b or
▁o ff
r▁ es
e k</w>
d em
c are</w>
▁n on</w>
e d▁
d evelop
▁d eb
an ted</w>
▁sec urity</w>
ur ed</w>
▁St ates</w>
our ces</w>
▁B ecause</w>
▁st age</w>
▁ap prov
oc c
r up
▁pers on
us tice</w>
ad em
ou t
an▁ g</w>
ann oun
y ou▁
▁con f
▁a n▁d</w>
▁l ater</w>
g ed</w>
pl ac
u▁ st</w>
qu art
H y
O ▁
vers y</w>
▁G roup</w>
ab o▁ut</w>
▁val ue</w>
ministr ation</w>
▁Intern ational</w>
au gh
▁surv ey</w>
p o</w>
ea th</w>
o o▁n</w>
o▁n g
▁E m
▁mater ials</w>
▁tak en</w>
▁at trac
sl and</w>
▁prom ote</w>
▁real ly</w>
e y
▁ac cor
▁f ans</w>
▁bu y</w>
Gyeong gi</w>
ye on</w>
i on
▁op port
ear ed</w>
in der
ea ce</w>
ic k</w>
▁wor ks</w>
Y ▁
▁fin al</w>
▁Am ong</w>
en cies</w>
▁s eason</w>
▁f ea
un d▁er</w>
ucl ear
t ak
e ep
aff ic</w>
s us
▁Prov ided</w>
▁F irst</w>
▁s ociety</w>
▁d ev
▁j oint</w>
▁h om
▁Am eric
▁” ”</w>
▁fri ends</w>
ati ves</w>
▁On e</w>
▁complet ed</w>
S ec
tiv ely</w>
▁ev ents</w>
c▁ om
S▁ e
▁th ough</w>
▁fac ility</w>
▁k eep</w>
t▁ wo</w>
e ans</w>
E x
▁for m
g en
&ap▁os ;s</w>
n am
om an</w>
▁custom ers</w>
▁R us
▁employ ment</w>
▁ro ad</w>
▁ 00</w>
s ite</w>
▁represent ative</w>
▁o thers</w>
s▁ uch</w>
▁high er</w>
▁f ace</w>
d ent</w>
▁en g
por ted</w>
af f</w>
▁h ouseh
▁vic ti
b ro
th ey</w>
rou ps</w>
▁civ il</w>
▁conditi ons</w>
angu age</w>
af e</w>
▁s ize</w>
d ef
st▁ em</w>
▁Ass ociation</w>
n ext</w>
e a▁r
e▁ v
s uch</w>
▁s ix</w>
▁fun ds</w>
th em</w>
▁L et</w>
ea k</w>
▁m ove</w>
a▁ ti▁on</w>
ic ial</w>
▁particip ated</w>
c le</w>
ip s</w>
▁l ead</w>
▁n ear</w>
t e▁r</w>
on▁ ly</w>
ob er</w>
e an
th e▁re</w>
re w</w>
form▁ er</w>
▁exch ange</w>
rec e
W ▁
▁for m</w>
o▁ ol</w>
em ale</w>
olog ical</w>
▁ra ised</w>
loc ▁al</w>
▁atten ded</w>
o th▁er</w>
li er</w>
ap pl
▁a ch
i er</w>
e igh
▁H ouse</w>
el t</w>
▁reg ion</w>
c▁ es</w>
▁overs eas</w>
▁contro l</w>
w ell</w>
J e
i▁ ed</w>
▁sup ply</w>
▁s o
▁tr y</w>
▁c all</w>
▁bec om
or din
o es</w>
▁trad itional</w>
ar d
▁ap pro
▁rul ing</w>
il ar</w>
▁m akes</w>
ur al</w>
▁Fin ancial</w>
c i▁
▁n ever</w>
str ▁
qu ▁
▁offic er</w>
▁sub mit</w>
per form
ti al</w>
it▁ ed</w>
id ence</w>
com p▁
▁rec ent</w>
▁pos sibility</w>
▁r ights</w>
a▁ tio▁n</w>
ot ed</w>
frastruc ture</w>
ee k</w>
e▁n ts</w>
ex ual</w>
el ing</w>
ea ch</w>
▁exhib ition</w>
a ud
C oun
▁p ass
j e▁ct</w>
a▁ n▁d</w>
▁wh i▁ch</w>
▁A b
c r▁
▁eff ect</w>
i▁ c</w>
▁wor ds</w>
▁activ ely</w>
es n</w>
▁streng th
ati v
▁ag o</w>
▁conduc t</w>
▁eas y</w>
w it
ul d</w>
red it</w>
re h
si ons</w>
J ae</w>
c s</w>
▁g o▁
▁dec ision</w>
on▁ g
▁ph one</w>
ag n
▁fri end</w>
▁eval uation</w>
der ed</w>
u▁ m
t on</w>
&a▁ p▁os;s</w>
▁i ▁n</w>
e▁ e</w>
▁stud ent</w>
ro ad</w>
n eg
▁A pril</w>
▁dr aw
▁J uly</w>
▁hou sing</w>
▁ex ten
pl ace</w>
a▁ d
es ting</w>
▁cour se</w>
ex p▁
▁accor dance</w>
▁im p
▁increa sing</w>
ud e</w>
in▁ to</w>
d own</w>
▁it ems</w>
pl ▁e</w>
trib ution</w>
▁i ▁s</w>
▁ret urn</w>
▁sh are</w>
b ur
o i▁n
ul a</w>
rec ▁
▁qu esti
eg u</w>
▁d u
ver ▁
▁b usin
▁ar res
▁doc uments</w>
port ation</w>
A d
e▁ a</w>
c our
▁f ur
▁cos ts</w>
▁c al
&ap▁os; l▁l</w>
W ▁e</w>
▁comp ared</w>
u ment</w>
u▁ t</w>
com ▁
▁dec rea
f e</w>
&q▁u ot▁;</w>
▁respon se</w>
▁neg oti
and ed</w>
▁J une</w>
a ther
o▁ me</w>
▁St ation</w>
m ental</w>
U .▁
▁vol unt
a▁ s
▁D ong
il ies</w>
▁a verage</w>
▁cooper ation</w>
▁author ities</w>
▁E uro
w a</w>
▁o ▁f</w>
en ding</w>
▁Democr atic</w>
anc ed</w>
ec h</w>
i▁ ve</w>
in t▁
it ors</w>
▁ar t</w>
inder g
▁Sh in</w>
&a pos;▁s</w>
▁Hy undai</w>
t▁ e</w>
▁w ar</w>
▁oper ating</w>
▁@ -▁@</w>
▁op position</w>
▁acc ount</w>
d▁ ing</w>
us ing</w>
pl ay
ept ember</w>
em▁ ent</w>
el eb
▁fun c
▁Sup reme</w>
o▁ se</w>
m ov
ig ▁
▁appl ic
▁oper ate</w>
e▁n ce</w>
i ety</w>
▁sign ific
ultur ▁al</w>
ag ▁e</w>
er▁ al</w>
ar▁ ge</w>
▁h ospital</w>
un ication</w>
y s
T h
▁en ti
▁pos ition</w>
us ted</w>
es ▁t</w>
▁s een</w>
▁r ole</w>
▁d ust</w>
▁e r
th y</w>
▁some thing</w>
ar▁ y</w>
ph as
an▁ t</w>
R es
er n</w>
a▁c k</w>
ec on
▁st ory</w>
▁plan ning</w>
▁lea ve</w>
il▁ l
fir st</w>
▁&a pos▁;s</w>
▁B l
▁&a pos;▁s</w>
tron ics</w>
ct ober</w>
S e▁
p op
▁tri al</w>
▁hear d</w>
▁tem per
▁e at</w>
ven tion</w>
▁prom otion</w>
g ood</w>
e▁ t
▁trav el</w>
▁lea der</w>
o h</w>
cl us
▁grow ing</w>
▁ex tr
▁e ffici
w▁ ay</w>
t u▁re</w>
c o</w>
▁emerg ency</w>
r▁ e
v ice</w>
d on
▁m inis
▁d eg
ic i
c al
s▁ ec
▁cl as
P ark</w>
if t</w>
▁im medi
▁r un</w>
▁r eas
es tion</w>
K▁or ea</w>
▁sec tor</w>
oun tain</w>
U.▁ S.</w>
te▁r m</w>
is ter</w>
x ed</w>
▁g en
▁f ew</w>
uc ▁
u k
a g</w>
▁rev ealed</w>
▁bel ieve</w>
p▁ ol
ov e▁r
▁p us
is is</w>
▁elec tion</w>
ar m</w>
▁p ain
us tr
a▁ p
▁j oin
for t
▁diffic ul
ep end
▁re view</w>
▁Y oon</w>
▁1 st</w>
en ded</w>
rap h
▁reg ular</w>
ff airs</w>
&▁ apo▁s
▁tr illion</w>
▁includ e</w>
▁S chool</w>
en▁ cy</w>
ear ly</w>
▁dis p
D is
ish ing</w>
▁r un
▁f estival</w>
▁cor por
▁inv ol
▁ra ther</w>
s▁ es</w>
ou r▁
▁purch ase</w>
a▁c t</w>
▁adv ance</w>
oun ds</w>
g▁ et</w>
▁out side</w>
▁intro duced</w>
▁as k</w>
▁m ess
▁u su
▁politi cal</w>
▁prepar ed</w>
u▁ p</w>
▁b ir
l aw
20▁ 1
b all</w>
ap p▁
▁M any</w>
▁need ed</w>
2 nd</w>
ou▁ th</w>
k ▁ed</w>
s▁ he</w>
▁w age</w>
s en
▁ ation</w>
▁curr ently</w>
▁cl ose</w>
o .</w>
ma▁ de</w>
if ic</w>
f e▁
▁m en</w>
▁d aily</w>
▁B ank</w>
▁wr itten</w>
▁N o</w>
ug ust</w>
▁g roups</w>
▁l ower</w>
s▁ aid</w>
pl ement</w>
▁meth od</w>
▁Tr ans
un der
▁establish ment</w>
▁Pr ime</w>
eb ru
in crea
ev▁ en</w>
dis ▁
p eople</w>
▁th a▁t</w>
▁spec ial
i j
h n</w>
quart ers</w>
ail able</w>
herein after</w>
ar r
▁str uc
rel ▁
a▁ use</w>
c ap
▁loo king</w>
▁dis ab
▁indus trial</w>
enc ed</w>
▁sh ows</w>
pl es</w>
▁bel iev
ef ul</w>
P ar▁ty</w>
l iv
▁t omorrow</w>
▁l eg
▁d en
ye a▁r</w>
j o▁
g overnme▁nt</w>
k n
. 3</w>
inc l▁
▁res pec
▁d ro
m any</w>
l ar
i o▁ns</w>
ev▁ el</w>
ec tive</w>
h eld</w>
ot t
▁s ugg
▁opin ions</w>
spec ially</w>
compan i▁es</w>
con c
a▁ m</w>
▁1 2
▁an sw
▁4 0</w>
in ing</w>
. 2</w>
▁med ium</w>
u ture</w>
Pa▁r k</w>
▁pol icies</w>
▁cont ents</w>
on ▁e</w>
n▁ ow</w>
pos al</w>
op ping</w>
▁t old</w>
ell ing</w>
anu ary</w>
s y</w>
▁id enti
e el</w>
t al
▁f av
▁c ities</w>
th eir</w>
ow l
ed ge</w>
ir ect</w>
a▁ ys</w>
a i▁n
a▁n g
▁s old</w>
en ti▁
or t
etw e▁en</w>
▁D ae</w>
▁l anguage</w>
▁deliber ation</w>
on ly</w>
g re
▁r ise</w>
op s</w>
▁l egal</w>
ti▁ ons</w>
d ro
ick ly</w>
▁pres ent</w>
▁opin ion</w>
▁j obs</w>
▁administr ation</w>
ex pl
▁prof essi
▁k ey</w>
i very</w>
▁develop ed</w>
▁Gang won</w>
c ul
n um
▁fil m</w>
▁phot o</w>
▁m anufactur
tif ul</w>
▁t▁ o</w>
▁aud it</w>
▁cl aim
▁sever al</w>
▁crea ted</w>
▁design ated</w>
▁L and</w>
▁concer ning</w>
wh en</w>
▁vehic le</w>
ch airm▁an</w>
▁happ y</w>
fac il
▁beg in
▁cl ear</w>
ar ant
▁com b
u▁ d
▁re port
ar ter</w>
▁need s</w>
▁Tr ade</w>
▁iss ues</w>
m ar
▁on line</w>
▁f arm
y ears</w>
ti on
k et</w>
C i▁ty</w>
▁stat us</w>
g round</w>
▁poin ts</w>
▁P ublic</w>
3 rd</w>
s ang
▁par ties</w>
▁Ch ung
▁ill egal</w>
▁cont ent</w>
in c▁
at▁ ic</w>
um e</w>
ou▁ l</w>
▁us ers</w>
▁equ ipment</w>
▁includ ed</w>
rea m</w>
h ea
ann ed</w>
▁t arg
▁en ough</w>
gr ic
con ven
▁chang es</w>
iqu e</w>
in▁ gs</w>
▁det ails</w>
for cement</w>
sup po▁rt</w>
▁R ec
▁natur al</w>
▁sus pec
▁S ung</w>
i▁ r
▁Dep artment</w>
▁A nd</w>
or ry</w>
▁k ind</w>
ol o▁
▁s ports</w>
o▁ nd</w>
e un</w>
ester day</w>
▁sim ilar</w>
▁reg ulations</w>
▁pas sed</w>
▁prin ci
▁comm issi
▁m om
e▁ ty</w>
▁un iversity</w>
▁c am
ch e▁on</w>
a▁ le</w>
▁s even</w>
as tic</w>
▁ter ms</w>
▁open ed</w>
sti m
t w
▁J i</w>
iv ely</w>
▁t as
▁contro versy</w>
n er
t▁ ly</w>
▁pres s</w>
▁en ter</w>
▁en ergy</w>
▁V iet
t▁ ing</w>
au ght</w>
▁f inis
▁A gency</w>
ab il
▁l ost</w>
▁A sian</w>
g l
s er
▁pl aces</w>
▁exper i
mon th</w>
m i▁n
▁recor d</w>
ol ds</w>
▁govern ments</w>
▁cons ult
f ro▁m</w>
▁ch ief</w>
▁ac tive</w>
Kore▁ a</w>
I ▁
▁manag er</w>
▁e duc
tr ic</w>
sec u
g overn
an▁ g
▁s ett
▁par ts</w>
▁P h
▁underst and</w>
tern oon</w>
▁t akes</w>
▁re duce</w>
l ong</w>
▁busin esses</w>
wh ere</w>
en d▁
▁rec ru
ro om</w>
. 1</w>
▁St ate</w>
ucl ear</w>
m a▁r
▁sc ene</w>
▁pic ture</w>
▁D uring</w>
▁g etting</w>
▁typ e</w>
v ari
l ife</w>
f un
l ow</w>
▁progr ams</w>
▁dis trict</w>
ch ang
ae j
u▁ se</w>
p ite</w>
▁1 3</w>
▁o il</w>
▁m et
d ings</w>
▁Intern et</w>
tur al</w>
d on▁g</w>
wh i▁le</w>
▁t ow
c ▁e</w>
et ary</w>
▁S eptember</w>
t▁ ime</w>
▁Y ang</w>
▁buil t</w>
▁L iber
▁d evel
t ee</w>
is ions</w>
▁f all</w>
▁r ice</w>
j ust</w>
e ering</w>
. 6</w>
▁su ffer
▁an im
▁H an</w>
▁exp and</w>
▁1 3
ain▁ st</w>
▁determ ined</w>
wor k
irec tor</w>
. 4</w>
▁g ave</w>
▁C l
y le</w>
our th</w>
s k
G ye
▁m et</w>
p▁ ar
b us
▁t w
▁f ee</w>
▁contin ued</w>
&▁a pos;s</w>
ow▁ er</w>
▁tr affic</w>
i▁ m</w>
▁inter ested</w>
b ers</w>
o ot
i ent</w>
▁ret ur
▁consid ered</w>
est ablis
an tly</w>
▁be h
ov ember</w>
at▁ es</w>
▁iss ued</w>
c a▁n</w>
▁Elec tronics</w>
▁l ec
tu ally</w>
od e</w>
or ed</w>
▁201 6</w>
eti tion</w>
▁f emale</w>
▁O ctober</w>
▁sen ior</w>
▁Ad ministration</w>
▁comm er
&a▁po▁s ;t</w>
▁P er
b▁ e
▁w oman</w>
▁prescri bed</w>
e▁ se</w>
en ed</w>
▁inten ds</w>
t in▁g</w>
ea▁ r</w>
an▁ ge</w>
▁d on
ent ers</w>
▁Hy un</w>
▁av ailable</w>
▁A ffairs</w>
▁in side</w>
▁sp read</w>
ad ministr
J ung</w>
p t</w>
d ays</w>
▁sum mer</w>
▁ et</w>
e ight</w>
▁d eath</w>
ell ent</w>
ad s</w>
▁G od</w>
p as
l ev▁el</w>
▁tri p</w>
▁1 6</w>
istr i▁ct</w>
gover ▁n
▁h y
onal d</w>
▁du ties</w>
ti t
9 th</w>
▁tea ms</w>
▁institu tion</w>
U .S.</w>
b etwe▁en</w>
&a▁ pos;</w>
▁devel op</w>
l▁ ike</w>
con sid
▁s aw</w>
incl▁ ud
sc ri
▁M anag
g ener
j ong</w>
a em
▁wee k
▁charac ter
▁b ack
t eam</w>
A n
▁immedi ately</w>
▁de emed</w>
▁Wh y</w>
▁al one</w>
&apo▁s ;</w>
an ch</w>
▁con fl
▁b ig
. 8</w>
▁st ation</w>
▁sus pen
▁compl ex</w>
▁s ea
▁infl u
▁eas ily</w>
g▁ h
a▁ e</w>
▁l ist</w>
i▁ ly</w>
d o▁ng</w>
▁st aff</w>
▁sched ule</w>
N orth</w>
▁M us
▁B e
pl ay</w>
p ar▁
▁b us
k no▁
at e▁d</w>
art ph
s al
▁stand ards</w>
f u▁
▁fam ous</w>
enc ▁e</w>
▁s ou
▁l ack</w>
▁E conom
om ic</w>
▁&qu ▁ot▁;</w>
ot te</w>
G over
▁improv ement</w>
tiv es</w>
▁proper ty</w>
▁hea t</w>
▁S pec
▁person nel</w>
mos ph
▁stand ard</w>
▁ac qu
▁v ac
▁g oods</w>
p▁ ublic</w>
s ome</w>
r en
▁t ick
G wang
▁M r.</w>
di ff▁
▁trans portation</w>
▁contin u
▁l ight</w>
▁201 8</w>
s ucc
y▁ ear</w>
in st
▁2 nd</w>
T▁ he</w>
is tics</w>
▁p .m.</w>
0 0
wi▁ t▁h</w>
▁F estival</w>
▁sub mitted</w>
ebru ary</w>
rea n</w>
u tiful</w>
. 7</w>
▁ind ic
▁A ugust</w>
▁mat ch</w>
um st
c urr
vi ew
in ter</w>
en sive</w>
an▁ s</w>
av ▁
▁w anted</w>
▁min imum</w>
▁J anuary</w>
busin e▁ss</w>
bas ▁ed</w>
D istri▁ct</w>
▁larg est</w>
▁h and</w>
▁en d
os ▁
▁in j
▁ch airperson</w>
al l▁
▁w it▁h</w>
▁e stim
▁Th ese</w>
at ch</w>
▁est ate</w>
▁g ather
pr is
der ly</w>
▁h on
s iz▁ed</w>
di ffic
p u▁
e▁ m</w>
inc i▁al</w>
em entary</w>
▁individ ual</w>
▁c old</w>
g▁ h</w>
▁hea d
▁pati ents</w>
▁m ight</w>
▁do ing</w>
▁r ap
▁m obile</w>
▁d oll
▁W a</w>
is ted</w>
a▁ in</w>
▁v illage</w>
,0 ▁00</w>
w o▁
▁th ing</w>
▁proc ed
st ar
ab ly</w>
▁go al</w>
▁car ried</w>
ear ing</w>
b er
▁us er</w>
▁pro g
▁S ing
com ▁p
▁par king</w>
w ide</w>
▁1 8</w>
▁g ir
▁Da egu</w>
▁questi ons</w>
▁$ $</w>
oo k
com m▁
▁tal k</w>
▁do esn</w>
ic on
ti▁ es</w>
th ly</w>
a x</w>
▁j ud
a▁r t</w>
▁requ ir
▁A ir
vis ▁
▁n etw
▁vehic les</w>
▁b ill</w>
s ign
▁requ ired</w>
erv ation</w>
b us▁
▁ad ver
ab out</w>
ow i▁ng</w>
▁analy sis</w>
▁C urr
i f▁
h el
Ch ina</w>
ur s</w>
res ent
at s</w>
p▁ or
Ko▁ rean</w>
hi▁ gh</w>
▁comp ens
▁C EO</w>
▁fur ther</w>
n▁ or</w>
h er
▁sing le</w>
▁Prov incial</w>
oo▁ k</w>
m arket</w>
h▁ in</w>
o ff▁
▁fam ilies</w>
ag re
▁cr isis</w>
▁car s</w>
s ay
ong er</w>
▁oper ated</w>
▁l ives</w>
o▁ c
ac t▁
▁aut om
▁s ent
▁bel ow</w>
s s▁
▁Se ung</w>
▁cont act</w>
▁A ll</w>
o ds</w>
▁approv al</w>
5 ▁
in to</w>
▁im plement</w>
▁ag encies</w>
ef o▁re</w>
te▁ am</w>
▁lear n</w>
▁appoin ted</w>
art ments</w>
▁expres sed</w>
p o▁l
p ay
▁J ang</w>
▁L abor</w>
mor ▁e</w>
ins ula</w>
f il
▁execu tive</w>
us ▁ed</w>
ul es</w>
ell ig
ati▁ onal</w>
▁b ank</w>
k y
▁y et</w>
▁pers onal</w>
▁19 9
on d
ul ate</w>
▁wh ole</w>
▁Pro f
▁Dec ember</w>
▁exam ple</w>
f y</w>
▁sh ip
▁del ivery</w>
▁ag ric
▁M ed
S u
▁trans fer</w>
▁e y
an d▁
y i▁ng</w>
E duc
▁ac tual</w>
ul ed</w>
▁1 4</w>
g n
▁mod el</w>
▁fu nd</w>
▁& a▁
si b▁
▁1 ,
be i▁ng</w>
▁rel ation
▁p oor</w>
▁sec retary</w>
▁man age</w>
▁dis aster</w>
et ed</w>
▁G u
▁Cor poration</w>
li▁ ke</w>
▁D ef
&ap▁os; re</w>
▁star ting</w>
▁c redit</w>
▁T V</w>
▁all eg
▁f elt</w>
wo▁r k</w>
▁lo an</w>
ou l▁d</w>
▁m other</w>
il d</w>
tr▁ y</w>
▁restaur ant</w>
▁coll ege</w>
b r▁
▁K yung</w>
l der</w>
ic ▁es</w>
an▁ y</w>
&ap▁os; ve</w>
▁y outh</w>
▁ur ban</w>
oc ks</w>
▁g ames</w>
▁S tr
▁s t▁
▁S ong</w>
▁M on
you▁ ng</w>
ur y</w>
m▁ ay</w>
U ▁
y er</w>
▁qu ickly</w>
▁h o</w>
▁h it</w>
or ing</w>
l ea▁
▁wor k
▁str ateg
m▁ it</w>
Prov ince</w>
▁ch o
▁201 7</w>
ta▁ ke</w>
▁rece iving</w>
▁O h</w>
d u▁
▁high est</w>
▁consum ers</w>
▁V ice</w>
a o</w>
▁ac tion</w>
▁ha p
pr ec
ong s</w>
▁ap artment</w>
▁r e▁
i▁ de</w>
▁u til
▁c entral</w>
▁Y oo</w>
cont in
▁temper ature</w>
▁J ustice</w>
p riv
▁P en
i▁g n</w>
▁v en
▁em phas
eed ed</w>
▁ch airman</w>
i▁n ce</w>
p ublic</w>
li k
a ult</w>
▁lea ding</w>
▁charg es</w>
c os
▁ind epend
▁exam ination</w>
▁B y</w>
si▁ te</w>
▁&▁ amp;</w>
em en▁t</w>
&a▁pos;▁ d</w>
▁c amp
▁b ad</w>
d uri▁ng</w>
▁U .
clud ed</w>
I n</w>
s ang</w>
ib er▁
f a▁
▁d one</w>
▁reg arding</w>
▁opport unity</w>
▁M ot
ear▁ ch</w>
▁or dered</w>
▁T echn
l eg
▁ref lec
h▁ o</w>
c▁ il</w>
oo t</w>
ar ies</w>
▁in nov
▁eff orts</w>
o ch
▁com es</w>
o▁ u
▁F rom</w>
o ke</w>
o ts</w>
▁f re
▁boo ks</w>
ig r
e▁ ment</w>
D ec
▁a ▁
▁J in</w>
▁bea utiful</w>
e▁ ss
▁sk in</w>
▁s ong</w>
▁un ion</w>
s▁ tr
h ol
&ap▁os; ▁
ti on▁s</w>
▁w aste</w>
▁del iver
P r▁
in tro
▁consid ering</w>
▁Kor eans</w>
mosph ere</w>
▁th ere
▁J eong</w>
▁cap ital</w>
▁2 5</w>
▁com ing</w>
▁re duced</w>
▁Se o</w>
▁orig inal</w>
▁ar ti
▁con ference</w>
&ap▁os ;</w>
m ade</w>
h im</w>
▁conc entr
▁commissi oned</w>
▁cer tain</w>
▁A t
eleb r
m on▁
▁a head</w>
▁h ot</w>
r ight</w>
ec t▁ed</w>
pos sible</w>
e▁n t
a j
▁y esterday</w>
▁g overnor</w>
S am
▁H wang</w>
por ting</w>
▁h e▁
qu al
sec o▁nd</w>
▁h os
▁Gang nam</w>
d h
▁cer tific
▁I r
▁professi onal</w>
▁driv ing</w>
v ol
et c</w>
the▁ y</w>
ec▁ ts</w>
4 ▁
▁usu ally</w>
tribu ted</w>
F in
s e▁r
e p▁
s in▁ce</w>
ut ors</w>
ri ve</w>
d▁ r
▁w i▁ll</w>
▁dis t
▁A re</w>
u▁ m</w>
Or din
erm any</w>
▁Liber ty</w>
. 9</w>
▁s ee
i▁c y</w>
coun t</w>
ff i▁ce</w>
a x
u g</w>
augh ter</w>
▁S m
oun▁ g</w>
ol l▁
▁stor es</w>
sel ves</w>
por ▁t</w>
u▁ ch</w>
m us
it able</w>
d e▁r</w>
▁N ovember</w>
▁p r▁
m i▁
▁produc ed</w>
▁6 0</w>
sh o▁
▁exc ellent</w>
i▁ or</w>
▁ab o▁ut</w>
eal s</w>
▁s pen
▁investig ating</w>
▁I sland</w>
▁wh▁ ich</w>
▁ad d
sy st▁em</w>
▁ar riv
Ko▁ rea</w>
▁ra ise</w>
g ing</w>
f▁ rom</w>
▁Curr ently</w>
ac ks</w>
▁f ell</w>
▁wat ch</w>
▁H ealth</w>
▁&apo▁s ;s</w>
our ce</w>
▁s pr
▁wea ther</w>
▁D onald</w>
tr a▁
our n
▁implem entation</w>
o f▁f
af t</w>
▁tr end</w>
over ed</w>
i▁ ef</w>
b s</w>
▁doc ument</w>
tim ▁e</w>
gr ad
C ity</w>
i▁ ze</w>
u▁ al</w>
esti g▁
▁F ebruary</w>
re present
eo▁ ple</w>
▁requ ested</w>
▁occ urred</w>
▁b ri
▁bur den</w>
o▁r t</w>
ent ing</w>
ea t
▁d ou
is ten
▁law mak
li am
anc tions</w>
▁tri ed</w>
▁perform ances</w>
▁ch urch</w>
st anding</w>
ov ed</w>
be▁c a▁use</w>
▁Ch ung</w>
▁h eal
▁deg rees</w>
re▁ c
s ue</w>
▁p resid
▁Y eong
&▁a p▁os
▁gu id
▁f alling</w>
▁comm on</w>
▁sc re
▁Trans port</w>
e th▁er</w>
▁qu estion</w>
ye a▁rs</w>
tr ad
▁ris k</w>
ativ ely</w>
ent▁ ly</w>
co▁m p
▁succ ess
▁lear ning</w>
▁concer ns</w>
i▁n a</w>
id ▁ed</w>
▁r ound</w>
▁n uclear</w>
ur is
og raph
▁r en
▁in f
pl ex</w>
▁201 5</w>
dr aw
u ge</w>
is l
▁super vis
A m
s ts</w>
▁Th ank</w>
▁P eople</w>
▁Ch eong
▁inst alled</w>
▁m ind</w>
▁cr ime</w>
i e▁
h s</w>
▁reg ional</w>
or thern</w>
▁w eb
pro t
il l▁
▁broad cas
i▁s h</w>
in ary</w>
up s</w>
f l▁
▁reas ons</w>
▁dram a</w>
▁sum mit</w>
▁s ▁
▁S ang</w>
e f▁
▁h all</w>
igh▁ t</w>
en viron
app oin
D a
he▁ l
an▁ ts</w>
T V</w>
&▁ q▁uot;</w>
▁sub par
▁col or</w>
▁L otte</w>
ibr ary</w>
y ong
▁un ivers
▁prescri be</w>
▁pres sure</w>
D emocr
▁T ae</w>
th e▁r</w>
e▁ st
C O</w>
▁ach iev
r▁ ec
P reside▁nt</w>
wh▁ ich</w>
in s</w>
er a</w>
▁h otel</w>
th i▁s</w>
ay▁ or</w>
v al
e ign
ae k
um an</w>
a ut
▁imp act</w>
▁entr ance</w>
&a pos▁;</w>
j ob</w>
g▁ ed</w>
duc ing</w>
▁m etropolitan</w>
▁lea ders</w>
▁hear t</w>
▁br and</w>
t ations</w>
iti ons</w>
i en▁ce</w>
d om
ai▁r s</w>
▁s yst
▁h er
ea▁ ch</w>
as h</w>
an ch
ab or
a▁ ri
S up
▁M in</w>
un ities</w>
In dus
▁hap pen
▁adv ant
wi▁ th
on str
i h
▁s ense</w>
oc i▁al</w>
ma▁ ke</w>
u ter</w>
tr ess</w>
S ou▁th</w>
iti e▁s</w>
▁f requ
▁comm unication</w>
i k</w>
▁l if
▁w id
▁tr ue</w>
▁sit es</w>
por ▁
is on</w>
▁go▁ ing</w>
el▁ y</w>
e o▁n</w>
d ue</w>
▁p un
▁s exual</w>
au th
▁3 rd</w>
t▁ ic
▁Reg arding</w>
▁victi ms</w>
t em
▁s ession</w>
▁ac adem
&ap▁os; ll</w>
▁atten d</w>
▁br ing</w>
th▁ em</w>
s i</w>
▁t im
sh ar
em b▁
▁concer t</w>
ec▁ ted</w>
▁f ig
m ee
m ake</w>
j▁ in</w>
k ey</w>
tr i▁al</w>
d▁ id</w>
b rea
ult i</w>
il ed</w>
▁wor th</w>
▁m o
a▁ ble</w>
ut or</w>
B S</w>
▁ey es</w>
et e</w>
ell s</w>
▁foll owed</w>
▁& q▁u
v ic
r i</w>
direc t▁or</w>
announ c▁ed</w>
thr▁ ee</w>
o in▁
▁mark ets</w>
▁d own
Comm itt▁ee</w>
B C</w>
wh at</w>
▁l ow
▁inter pre
ye▁ ong
w r
▁th e▁re</w>
▁coun cil</w>
ec o▁n
cl u▁
▁circ umst
▁tr ying</w>
▁in ter</w>
it▁ ion</w>
i on▁s</w>
icon duc
▁N am</w>
M anag
▁M ost</w>
d in▁g</w>
4 0</w>
▁st op</w>
▁ser ies</w>
t i</w>
or d</w>
▁re duction</w>
▁beh ind</w>
▁ann ual</w>
▁Def ense</w>
ess ing</w>
s▁ p
olo▁ gy</w>
m in</w>
Ordin an▁ce</w>
ic ally</w>
N at▁ional</w>
it▁ s</w>
ou▁ se</w>
m emb▁er</w>
▁intro duce</w>
In tern
st and
d oc
ab les</w>
▁educ ational</w>
▁2 4</w>
gr o▁
▁K ong</w>
t▁ ri
sh▁ ip</w>
▁mat ter</w>
i p▁
▁s ea</w>
▁Al so</w>
▁wr iting</w>
c u▁
▁f ile</w>
▁ex erc
▁cou ldn</w>
inten dent</w>
h ing</w>
iv ▁e</w>
▁c aught</w>
oh n</w>
ear by</w>
▁Rus sia</w>
in stitu
▁r ead</w>
▁el ig
j i</w>
▁ph ys
▁benef its</w>
▁L ocal</w>
C or
▁organiz ed</w>
▁win ter</w>
▁p or
▁cri tici
rou▁ nd</w>
▁play ed</w>
t ation</w>
e um
▁N am
▁Manag ement</w>
i▁ f</w>
▁for ward</w>
▁dis tribution</w>
s em
ul▁ ar</w>
▁predic ted</w>
▁m emor
x t</w>
e▁n s</w>
▁enter ed</w>
e or
P ro▁
▁laun ched</w>
▁r ain</w>
▁particip ants</w>
▁begin ning</w>
s er▁
pro m
ur ▁es</w>
▁sup pl
▁af ternoon</w>
▁im age</w>
manag eme▁nt</w>
g re▁
▁vi ew</w>
▁ow ner</w>
▁eval u
e▁ ar</w>
▁relation ship</w>
▁reg is
▁r ates</w>
u i</w>
tis ts</w>
por ▁ts</w>
▁w in</w>
▁n ation</w>
onom y</w>
inv est
h ea▁
▁sh owing</w>
t oo</w>
O S
▁ar gu
▁im m
s et</w>
h os
ea ter</w>
dic tion</w>
v e
▁m as
wor ld</w>
p resid
▁s ays</w>
▁R e
▁Prof essor</w>
▁hol ding</w>
▁enter pr
▁d uty</w>
k▁ ing</w>
▁var iety</w>
▁Y ong
▁de pos
▁c ur
▁F und</w>
t ained</w>
er ies</w>
ans ion</w>
T h▁e</w>
▁D irector</w>
oth es</w>
▁c ut</w>
▁Dis trict</w>
evelop ment</w>
▁n orm
▁mom ent</w>
▁hea vy</w>
tr o▁
▁v ice</w>
▁mess age</w>
ter ▁
a▁ d</w>
▁prot ection</w>
l ement</w>
m uch</w>
▁res t</w>
▁e ight</w>
▁comp reh
in ▁e</w>
▁corpor ate</w>
su▁ r
e i</w>
am ▁e</w>
▁dis c
▁custom er</w>
b l▁
ener al</w>
▁entr usted</w>
▁compl ain
si▁ de</w>
h i▁s</w>
d ec▁
at t▁
▁m er
▁high ly</w>
▁acc idents</w>
et ings</w>
▁bo ard</w>
ar ily</w>
▁stat ement</w>
▁pop ulation</w>
▁it self</w>
▁In v
f in▁
a▁ ir
▁coll ection</w>
s▁ oo</w>
a ul
t ake</w>
m in▁
k en</w>
▁notif y</w>
▁In frastructure</w>
▁wr ong</w>
▁D es
vari o▁us</w>
▁foc us</w>
▁ad vis
▁Se ong
b and</w>
aus ▁e</w>
▁p i
▁fil ed</w>
e i▁
M in▁
▁differ ence</w>
uclear ization</w>
f ace</w>
S▁e oul</w>
▁sus pic
▁indus tries</w>
▁at mosphere</w>
ular ity</w>
ar t▁
▁en cour
▁Ch airperson</w>
h ous
f ood</w>
▁G ermany</w>
Prov inc▁e</w>
▁res ources</w>
om▁ ic</w>
me ans</w>
ea▁ n</w>
tur ▁e</w>
im prov
▁struc ture</w>
▁H igh</w>
ev al
Un iver
ar ded</w>
oo▁ d</w>
l san</w>
s ame</w>
el ds</w>
istr ation</w>
▁int egr
▁Spec ial</w>
c ast</w>
U S</w>
▁b ase</w>
▁1 7</w>
e▁r n</w>
ed eration</w>
▁4 th</w>
g le</w>
ec ting</w>
▁f ather</w>
▁el derly</w>
▁S on</w>
a▁ fter</w>
▁sm artph
wh ile</w>
oi▁n t</w>
igh t
▁c enters</w>
tern al</w>
s om
▁t aste</w>
▁bl ood</w>
in d▁
ar▁ d</w>
▁inter view</w>
ti▁ n
▁w ays</w>
&ap▁os▁ ;
▁k inderg
▁buil d</w>
j us
o in</w>
n▁ am</w>
▁gu arant
▁sh opping</w>
▁Rep resent
w ou▁ld</w>
tic ism</w>
oo king</w>
i▁ l</w>
ul l
eh ol
os eon</w>
S erv
▁tea cher</w>
id ge</w>
▁g row</w>
qu are</w>
ap pro
l obal</w>
an e</w>
sp▁ ec
sch o▁ol</w>
ag ain▁st</w>
F or
▁av o
b ass
b ack</w>
▁vis itors</w>
f ully</w>
▁m en
▁h our</w>
▁d irect</w>
▁cl ub</w>
m es</w>
▁Com p
ar b
▁trans ac
▁th em
▁m ut
ivers ary</w>
comp eti
r▁ ea
l i▁ne</w>
▁m ul
▁S un
ul ated</w>
ar▁ ea</w>
▁r ed</w>
▁Ch eong</w>
▁Sec retary</w>
n ec
▁hou ses</w>
e▁ y</w>
con struc
▁s n
▁F ac
me▁ m
inv estig▁
▁L ea
tain ment</w>
t▁h eir</w>
▁r e</w>
a f▁
sc a▁le</w>
ow▁ ed</w>
neg oti
eti c</w>
I n▁
▁A p
t our
▁particip ation</w>
▁repor ts</w>
▁real ity</w>
▁s anctions</w>
ub ▁
i en
▁wh ose</w>
▁rea ding</w>
ust ment</w>
owl edge</w>
l aw</w>
g row
▁r ati
▁accoun ting</w>
▁Viet nam</w>
▁t en
▁inc ident</w>
su▁ ng</w>
b el
ar ea</w>
▁s ale</w>
s ystem</w>
▁C ulture</w>
▁lo ans</w>
tiv eness</w>
bec au▁se</w>
w▁ or
n on</w>
▁tea chers</w>
▁ear lier</w>
expec t▁ed</w>
c ally</w>
D ep
ver s</w>
k ay</w>
▁rece ip
▁1 8
ur t</w>
d a▁y</w>
M oon</w>
▁s ud
1 5</w>
1 0
t est</w>
u▁l t</w>
▁p oll
▁g round</w>
▁G r
iber▁ ty</w>
su p▁
k ch
f▁ o▁r</w>
▁enti re</w>
it▁ ies</w>
en▁ se</w>
K i▁m</w>
c ase</w>
▁st ay</w>
▁analy zed</w>
1 8</w>
▁L ast</w>
ou gh
▁s ymp
▁a im
rea▁ se</w>
▁wor ked</w>
▁J in
▁g reen</w>
cal l▁ed</w>
agrap hs</w>
▁d eal</w>
▁spec ific</w>
▁enj oy
▁direc tion</w>
eo pl▁e</w>
sh all</w>
▁s am
▁w al
ye▁ on</w>
▁sched uled</w>
f uture</w>
▁or din
▁inst all
ne▁ xt</w>
▁pos itive</w>
c i▁ty</w>
Ar tic▁
▁some one</w>
rea t</w>
o ff</w>
iv e▁r
▁sol ve</w>
▁m ach
▁% %</w>
▁p ost</w>
ing ly</w>
▁Y ong</w>
Par t▁y</w>
▁vi ew
end a</w>
at▁ er</w>
▁f ailed</w>
for▁ m
o e</w>
n ey</w>
▁Y ork</w>
▁rel ease</w>
▁h ands</w>
▁dis ease</w>
anc i▁al</w>
▁p ot
▁tour ists</w>
▁O ur</w>
▁A sia</w>
res i▁d
o ffici
G ye▁ong
▁inst ead</w>
e▁ l</w>
J ong</w>
C ent▁er</w>
▁S afety</w>
▁ ing</w>
m a▁ny</w>
k now</w>
iz es</w>
a por
▁wh ite</w>
▁sim ple</w>
▁Pro sec
▁For eign</w>
t op</w>
▁prov isions</w>
d ev
▁househ olds</w>
▁div ision</w>
▁Ch ief</w>
y cle</w>
u ▁e</w>
h▁ ow</w>
so▁ o</w>
▁s cor
▁particip ating</w>
we▁ ll</w>
A r▁
▁A hn</w>
rou gh
h ere</w>
el imin
ae k</w>
▁d est
in tern
A▁ ct</w>
▁pos ted</w>
▁lim ited</w>
▁ac ross</w>
▁hear ing</w>
▁Americ an</w>
▁s ell</w>
▁b anks</w>
memb e▁rs</w>
ol▁ d</w>
Com m▁
su▁ p
p▁ r
1 00</w>
▁ch ance</w>
rea l</w>
e▁ ar
& amp;</w>
▁p aper</w>
▁coun sel
re t</w>
it ation</w>
▁re ven
l im
▁St ud
s c▁
▁f ully</w>
▁agre ed</w>
id ly</w>
h ist
▁univers ities</w>
el ed</w>
▁pr em
pr▁ ov
m illi▁on</w>
di ffer
Minis t▁ry</w>
▁p m</w>
m▁ in</w>
g▁h t</w>
pri ate</w>
ivers i▁ty</w>
▁M ore</w>
l▁ th</w>
d riv
▁p o
▁w ▁
▁F oundation</w>
▁n ation
y ers</w>
▁pr ec
pres ▁
e u
▁pl ant</w>
▁di ed</w>
cor por
am ed</w>
1 3
▁n ature</w>
▁i r
ear ance</w>
ea v
am o▁ng</w>
ir e▁c
20 1▁
▁los s</w>
pl a▁ce</w>
g ery</w>
ci pl
▁tr ain</w>
▁elig ible</w>
2▁ 0
ow ers</w>
▁per form</w>
▁mov ement</w>
d o
▁compens ation</w>
▁Sec urity</w>
▁O f</w>
mee ti▁ng</w>
as ▁t</w>
▁recor ds</w>
▁pl at
▁b ought</w>
▁Rec ently</w>
sec ▁
re▁ s
in form
s ity</w>
p ubl
l▁ es</w>
fi▁ r
S t▁
▁s atis
uc k</w>
re▁ g
▁ser ious</w>
▁candid ate</w>
▁W elfare</w>
▁difficul ties</w>
▁all ow</w>
h ome</w>
▁g as</w>
▁&a p▁os
ip p
▁l un
s a</w>
er ve</w>
▁new ly</w>
w s</w>
er ce</w>
▁m enti
dis tr
con f
2 5</w>
▁fav or
s y▁
b eg
▁negoti ations</w>
sti tu▁
▁v ir
▁sp eed</w>
▁sec ure</w>
S .
▁t it
▁p ass</w>
spec i▁al</w>
ou▁ gh</w>
I ▁n
▁Je oll
an c▁
an ad
▁netw ork</w>
is i▁on</w>
ag ing</w>
▁exc ept</w>
▁driv er</w>
▁C ultural</w>
ill ing</w>
coun ▁
▁in iti
P ol
▁str essed</w>
▁w ish</w>
▁res tric
▁Res earch</w>
▁ y</w>
▁1 0th</w>
in ds</w>
▁e specially</w>
▁K ing</w>
t oc
o▁ un
▁ev idence</w>
▁E ar
▁1 9</w>
ou▁r t</w>
f▁ l
1 2</w>
▁hol iday</w>
▁loo ks</w>
▁N ow</w>
l ymp
enti▁ al</w>
trib ute</w>
▁foll ow</w>
r▁ y</w>
▁en sure</w>
eb ook</w>
▁environ mental</w>
▁L G</w>
p ower</w>
f▁ ul</w>
ain i▁ng</w>
a b</w>
▁tem por
▁recomm ended</w>
▁20 th</w>
▁el ementary</w>
▁cl othes</w>
th ea
e o▁ng</w>
a im</w>
▁agric ultural</w>
▁Su per
th▁ rough</w>
b ir
▁un f
▁sh own</w>
▁deliver ed</w>
▁th eme</w>
▁str eet</w>
▁En viron
w a▁
in ner</w>
clud ing</w>
▁pre vention</w>
&ap▁os; v▁e</w>
▁tur ned</w>
▁invol ved</w>
▁big gest</w>
▁Indus trial</w>
ul ting</w>
er i
an▁ d
c ity</w>
▁re ti
m p
im plem
d oor</w>
▁Ab out</w>
i x
s u</w>
it▁ al</w>
&a▁pos;▁ m</w>
▁2 00</w>
am a</w>
▁H all</w>
l a▁r
▁p ain</w>
▁l iv
▁includ es</w>
In che▁on</w>
▁th▁ at</w>
oti ce</w>
6 ▁
sp e▁
▁mater ial</w>
w▁ ant</w>
ro w▁
▁becom es</w>
▁ann iversary</w>
▁C ould</w>
ur ities</w>
g en</w>
▁st ep</w>
▁re form</w>
er i▁ng</w>
▁for ce</w>
▁e ss
▁exch ang
▁en h
▁co ff
en▁ d
ad ing</w>
▁over all</w>
he▁l p</w>
b u</w>
▁separ ately</w>
▁For mer</w>
h om
don es
as n</w>
es▁ s
ustr al
ter y</w>
n▁ ing</w>
▁add ress</w>
▁D on</w>
econ om▁ic</w>
im self</w>
t ent</w>
i▁ te</w>
Democr at▁ic</w>
▁exp ansion</w>
▁ac t</w>
▁go es</w>
▁D evelopment</w>
ch ange</w>
▁d ream</w>
▁s om
▁M at
i▁ ci
D ong</w>
▁pass eng
f▁ irst</w>
▁sk ills</w>
▁s elling</w>
▁qu arter</w>
▁occ up
t oday</w>
et er
er t</w>
▁in s
▁strength en</w>
▁n earby</w>
0 0,000</w>
▁con dition</w>
s e▁c
r o</w>
m ain
▁typ es</w>
▁o ffer
▁gather ed</w>
mark ▁et</w>
▁b al
i ation</w>
▁g re
▁b ar
▁D ue</w>
▁vis iting</w>
▁un it</w>
▁p eace</w>
▁eff ects</w>
h w
e▁ as
A▁ r
▁f ro▁m</w>
▁d ig
▁In di
es day</w>
co▁ un
▁gener ation</w>
ic an</w>
an a</w>
▁ra ising</w>
▁a .m.</w>
ellig ence</w>
▁bl ack</w>
ent▁ al</w>
n ation▁al</w>
2 2</w>
▁G eneral</w>
u x
pl om
▁F ood</w>
▁proper ly</w>
▁dis clos
▁1 5
pre v
▁s ound</w>
op ped</w>
id s</w>
en▁ t
Minis t▁er</w>
▁s on</w>
▁ha ir</w>
ea ted</w>
ag ain</w>
▁par k</w>
▁complet e</w>
pro bl
a w▁
▁regis tered</w>
p▁ ort</w>
i▁s m</w>
▁s ure</w>
▁reg istration</w>
▁determ ine</w>
y oung</w>
en i▁ng</w>
▁all owed</w>
ten ance</w>
o▁ m</w>
▁m y
▁implem ented</w>
c e▁n
6 0</w>
▁w on
▁id ea</w>
▁ab ove</w>
▁prof it</w>
▁loc ation</w>
b a▁
▁rel atively</w>
▁l and
t ea▁
sm a▁ll</w>
▁candid ates</w>
▁E ast</w>
ou▁n t</w>
fr▁ ee</w>
aej eon</w>
▁o lder</w>
▁dec l
off i▁ce</w>
co▁ me</w>
b▁ ec
in spec
▁intern al</w>
▁cor poration</w>
▁a ▁t</w>
al ization</w>
E lec
f▁ am
▁wh ic▁h</w>
▁re plac
▁Sh in
▁W on</w>
pro je▁ct</w>
▁n eigh
▁f un</w>
m otion</w>
e en
ar ing</w>
▁m id
▁c elebr
eas es</w>
201 8</w>
▁mov ed</w>
com pl▁
▁w ife</w>
ess▁ or</w>
M ar
▁s afe</w>
▁air port</w>
ea ker</w>
▁f ourth</w>
▁Bl ue</w>
j ud
it ment</w>
▁pl ac
▁C up</w>
u▁ ty</w>
ult u▁re</w>
si t▁y</w>
▁5 th</w>
s n</w>
it ted</w>
e ous</w>
Ch ung
▁circumst ances</w>
▁auth ority</w>
p reside▁nt</w>
m en</w>
Prov ▁
P h
▁b ott
▁K won</w>
is tic</w>
c e▁
▁super intendent</w>
▁s ign</w>
if y</w>
▁7 th</w>
vi ol
t ogether</w>
▁invest ors</w>
occ er</w>
ic h
O ffi▁ce</w>
▁resol ution</w>
sh ou▁ld</w>
b um</w>
pro sec
ou ▁s</w>
▁certific ate</w>
th ere</w>
num b▁er</w>
el ect</w>
▁tax i</w>
ow on</w>
iv al</w>
g overnment</w>
duc t</w>
Par ty</w>
J ap▁
▁war r
▁s orry</w>
▁qu al
s ▁e</w>
or ▁s</w>
a▁ ted</w>
▁web site</w>
m od
Ass oci
▁pro posed</w>
▁Techn ology</w>
o x
ch arac
1 8
▁c op
t ea
k y</w>
fri end</w>
▁aud ience</w>
ut ting</w>
rou ght</w>
▁conven ience</w>
▁separ ate</w>
▁con trac
ris ti
im inal</w>
h ouse</w>
Se ou▁l</w>
e▁ ms</w>
▁them selves</w>
▁laun ch</w>
▁head quarters</w>
▁H is</w>
uris diction</w>
sa▁ me</w>
p▁ er</w>
1 1</w>
▁bas is</w>
I f</w>
▁viol ence</w>
t u▁r
b o</w>
▁t urn</w>
▁receip t</w>
▁publ ic
▁Je on
at▁ ch</w>
▁car ry</w>
st▁ r
e w▁
▁201 4</w>
s▁ ho▁
ac king</w>
sch ool</w>
h▁ eld</w>
P res▁
▁cer tif
par ty</w>
▁7 0</w>
m a▁n</w>
g e▁n
Y oung</w>
▁p l▁
ti▁ v
fort able</w>
1 9</w>
▁un ique</w>
▁S K</w>
m▁ y</w>
▁ev er</w>
▁consid eration</w>
▁co ach</w>
ver se</w>
o▁ k</w>
ec k</w>
▁A ir</w>
o ffice</w>
▁respon sible</w>
▁coll ected</w>
▁prov iding</w>
▁S cience</w>
ub e</w>
T S</w>
o▁m y</w>
over y</w>
be e▁n</w>
▁pop ularity</w>
▁menti oned</w>
▁compreh ensive</w>
▁b at
ul t▁
d iv
▁clos ed</w>
yp toc
ploy ment</w>
or i</w>
anc y</w>
▁rea ched</w>
▁clas ses</w>
ear ▁s</w>
▁grad u
▁W ave</w>
cl a▁
ation ▁s</w>
▁r ad
▁buil dings</w>
v a▁ri
n▁ ment</w>
▁tal ks</w>
it ure</w>
fo▁r m</w>
ex am
um▁ ber</w>
art me▁nt</w>
▁draw ing</w>
w▁h ic▁h</w>
▁h uge</w>
▁S i</w>
ye o▁n</w>
s ti▁
oo d
ok es
▁it em</w>
urr oun
it or</w>
ig ▁n
▁bro ke</w>
▁201 9</w>
oun▁ d</w>
&apos; t</w>
▁s av
▁report edly</w>
▁doll ars</w>
▁ab ility</w>
▁prog ress</w>
ar e
▁v oice</w>
▁signific ant</w>
z ing</w>
s im
k in▁g</w>
j▁ u</w>
eti mes</w>
L iber▁ty</w>
op h
in n
ic ine</w>
a▁l f</w>
▁for est</w>
▁consult ation</w>
con tro
s eong</w>
en▁ d</w>
a ign</w>
▁sign ed</w>
ish ment</w>
▁m ak
end▁ ly</w>
p ean</w>
on ing</w>
con sum
▁r an
▁crea ting</w>
m en▁ts</w>
e ers</w>
▁app eared</w>
▁answ er</w>
t le</w>
s▁ an</w>
ester n</w>
eb all</w>
▁wa it</w>
▁S un</w>
ular ly</w>
sh i▁
pl▁ an</w>
N ew</w>
C EO</w>
it▁ tee</w>
P l
s▁ et</w>
comp any</w>
▁A gric
▁manufactur ing</w>
▁f ast</w>
▁C o
▁Un like</w>
t e▁n
▁s h▁
▁recogn ized</w>
con t▁
▁tour ism</w>
▁cl ean
▁R iver</w>
k ▁s</w>
ch i</w>
be▁c au▁se</w>
▁commer cial</w>
in g▁
▁pri ze</w>
▁det ailed</w>
▁L im</w>
▁t ou
▁phys ical</w>
▁P yeong
udg et</w>
ter n</w>
su it</w>
▁design ed</w>
iv il</w>
agn os
▁pro posal</w>
▁Dec ree</w>
t▁ w
op er▁
an ti
▁af t▁er</w>
at▁ ions</w>
▁main tain</w>
a▁ f
▁ur g
er ous</w>
d am
▁hea ds</w>
▁den uclearization</w>
s▁ ion</w>
ic ts</w>
▁every one</w>
▁coff ee</w>
▁charac ter</w>
E m
▁sm o
▁sec tion</w>
kch ain</w>
▁arres ted</w>
g ation</w>
N S</w>
tr a</w>
Gye o▁ng
y ph
ter m</w>
st or
▁ac tually</w>
un der</w>
▁rati o</w>
ti e▁s</w>
m▁ on
&a▁pos▁ ;m</w>
h ear
eep ing</w>
▁lim it</w>
si o▁n</w>
o▁n y</w>
oo▁ l</w>
▁Euro pe</w>
s oo</w>
ol ution</w>
lar ation</w>
h▁ ead</w>
&▁a pos▁;</w>
▁prot ect</w>
▁prac tice</w>
▁ex port</w>
o▁ ld</w>
atten tion</w>
iz ▁
ing u
em pl
▁w ave</w>
▁n ur
▁l og
t▁h er</w>
ea u</w>
ac c▁
▁dis mis
g▁ i</w>
t▁ il</w>
develop me▁nt</w>
▁b it</w>
ow er
▁me etings</w>
▁ab road</w>
in v▁
▁ar tists</w>
▁presid ential</w>
▁Ch ang</w>
▁sub scri
▁elec tric</w>
▁disab led</w>
re▁ l
n▁ er</w>
en▁ ed</w>
▁aff ili
&a▁ p▁os
▁Su won</w>
olog ies</w>
▁wa iting</w>
▁l etter</w>
en tr▁
▁prepar ing</w>
▁confl ict</w>
▁n otice</w>
▁ag enda</w>
un i▁ty</w>
il i▁ty</w>
c▁ t</w>
b ea
0▁ 0</w>
▁play er</w>
▁cri ticism</w>
k n▁ow</w>
▁ow ners</w>
manag ▁
j e</w>
il es</w>
apor e</w>
▁Un der</w>
▁Ta i
▁ad j
ent e▁r</w>
▁princi ple</w>
w ards</w>
u al
ab y</w>
▁wat ching</w>
st at
ov▁ ern
ann er</w>
▁ch all
af e▁ty</w>
▁selec tion</w>
▁er a</w>
s▁ u
sh ips</w>
dr▁ en</w>
ch ar
▁res ear
▁Kor ▁
▁func tion</w>
▁crea tion</w>
▁character istics</w>
▁any thing</w>
p▁ eople</w>
i▁ v
J i</w>
▁pl anned</w>
str u▁c
art en</w>
▁div ided</w>
▁ar ticle</w>
ol f</w>
cl ear</w>
▁prov ides</w>
d e▁c
sc ape</w>
s eo</w>
p▁ op</w>
iti▁ ng</w>
▁respon sibility</w>
▁g iving</w>
o▁ w</w>
ex pres
▁dis app
re g▁
o▁ t</w>
or▁ y</w>
g es</w>
am p</w>
m ation</w>
▁vac ation</w>
▁becom ing</w>
il▁ ity</w>
eed s</w>
com ing</w>
▁ex emp
▁main ly</w>
▁dep ending</w>
m an▁
Ch i▁na</w>
in▁ k</w>
h ou
▁C entral</w>
r ect</w>
▁g ap</w>
s oci▁al</w>
an m
▁targ et</w>
▁con vers
id o</w>
c aus
7 ▁
▁al though</w>
▁Indus try</w>
y un</w>
e▁ ts</w>
▁t ex
un m
f ull</w>
▁Fin ance</w>
▁B ud
t o▁r</w>
▁sh ip</w>
r a▁te</w>
bro ad
▁tr ust
sy ch
m ay</w>
ad ium</w>
▁C anad
▁B o
tron ic</w>
F r
▁sem iconduc
▁househ old</w>
▁h ear</w>
▁Y ear</w>
s▁ ee</w>
o▁ ff</w>
▁im pres
▁d ance</w>
▁6 th</w>
t y▁
▁f res
▁Y ang
n▁ um▁ber</w>
con diti
▁stud ying</w>
▁s ens
▁for eign
▁J oseon</w>
rece iv
att e▁n
A l
▁shar ing</w>
▁1 8th</w>
▁sc ope</w>
▁T oday</w>
▁19 th</w>
p▁ ed</w>
b efo▁re</w>
ad ▁e</w>
▁for med</w>
▁employ ee</w>
p oin
▁r ising</w>
▁estim ated</w>
mo▁ st</w>
elf a▁re</w>
a▁n cial</w>
▁retur ned</w>
▁intro duction</w>
▁expec ts</w>
▁8 0</w>
on ds</w>
it ary</w>
eco▁n omic</w>
&▁a pos;
▁s earch</w>
▁resid ent</w>
▁cl ean</w>
r▁ un</w>
ong ▁
; ▁t</w>
us h</w>
resid en▁ts</w>
c re▁
▁s elect</w>
▁del ayed</w>
▁2 1</w>
a▁ y
B us▁
▁mov ing</w>
s c▁h
i▁ um</w>
▁k illed</w>
▁meth ods</w>
▁a b▁
▁H w
v i▁ce</w>
▁arres t</w>
▁appoin tment</w>
▁all ow
ou▁ r</w>
U ▁n
▁j urisdiction</w>
▁hist or
▁f air</w>
wh ic▁h</w>
uc▁ h</w>
comp a▁ny</w>
ir ing</w>
U .
Ch▁ oi</w>
▁mov ies</w>
▁every thing</w>
▁accoun ts</w>
▁subsid ies</w>
▁dr ink</w>
w▁ an</w>
th em
1 2
▁reg ions</w>
▁critici zed</w>
▁cor rec
▁al most</w>
con v
b ing</w>
Gye▁ong gi</w>
▁l onger</w>
n▁ eed</w>
ad d
▁proced ures</w>
▁ma x
▁s cience</w>
h el▁
1 3</w>
▁w ind</w>
un k</w>
s yst
us ion</w>
me d▁
▁ en</w>
s or
reg ul
▁tow ard</w>
▁rea ch</w>
▁En forcement</w>
us band</w>
osp it
▁f oun
ten s</w>
so▁ me</w>
i on▁al</w>
d▁ is
y oun▁g</w>
▁ex act</w>
▁Th rough</w>
▁f oundation</w>
▁Represent ative</w>
▁Econom ic</w>
e▁ g
es ter</w>
er ry</w>
▁em ail</w>
▁c ro
u th</w>
r▁ ee</w>
ev ent</w>
as es</w>
res p
re pres
o▁ wn</w>
ere fore</w>
▁comm unic
do▁ wn</w>
c re
t▁ er
o▁ or</w>
▁rem aining</w>
▁exp anded</w>
▁A ustral
end ation</w>
▁pl aying</w>
per son</w>
onom ous</w>
as ty</w>
▁r ental</w>
▁influ ence</w>
rough out</w>
c ur
a i▁n</w>
H w
▁dram as</w>
▁chil d
▁bo x</w>
igh ting</w>
al ized</w>
a h
▁acc ess</w>
▁O ffic
▁11 th</w>
ta▁ in</w>
▁per c
w eek</w>
ing ▁s</w>
at▁ io▁n</w>
▁u ng</w>
▁revis ion</w>
um s</w>
▁sea ts</w>
▁main tenance</w>
▁ex am</w>
z ens</w>
en▁ ter</w>
ac ked</w>
▁wee ks</w>
▁announ cement</w>
▁T ur
dep end
ch arg
ang ▁
▁par t
▁claim ed</w>
fl ect</w>
▁w ide</w>
og y</w>
go▁ od</w>
▁sch ol
▁I m
sit u
pos iti▁on</w>
pl an</w>
▁recomm end</w>
▁Sup port</w>
t▁h a▁t</w>
l if
ell ow</w>
▁per mission</w>
▁l at
▁a ward</w>
▁Con sid
ab▁ or</w>
Prov inci▁al</w>
▁wor d</w>
r ing</w>
i▁ ties</w>
b est</w>
▁phot os</w>
wh▁ at</w>
stud en▁ts</w>
r ate</w>
pro du▁c
educ ati▁on</w>
▁run ning</w>
▁Th erefore</w>
pro gr
gro▁ up</w>
▁M al
u▁ te</w>
fri end▁ly</w>
▁l ic
▁acc ep
▁Y e
or d▁er</w>
▁f os
▁dem onstr
h igh
1 5
▁l ibrary</w>
▁ad op
▁Ex per
▁succ ess</w>
▁canc er</w>
m▁ ak
ati cally</w>
▁Euro pean</w>
▁r ange</w>
▁maj ority</w>
▁investig ate</w>
est ab
▁exerc ise</w>
en g</w>
ter ▁s</w>
▁expec t</w>
▁2 2</w>
l ight</w>
it age</w>
c ent▁er</w>
ag ric
20 0
▁improv ed</w>
▁K ak
e ech</w>
s on
li▁ fe</w>
▁H u
▁in struc
th en</w>
t en</w>
os s</w>
C T</w>
▁cho ose</w>
ch ▁ed</w>
ch it
▁contin ues</w>
▁In dones
ow▁ n</w>
our ism</w>
ess ment</w>
cr im
vis ory</w>
ip ped</w>
e▁ as</w>
C▁ EO</w>
▁restaur ants</w>
▁in form
▁heal thy</w>
▁t able</w>
▁sup porting</w>
▁minis ter</w>
▁h imself</w>
▁fi elds</w>
serv i▁ce</w>
ta x</w>
pro▁ v
e▁ es</w>
u als</w>
▁rap idly</w>
re v▁
p ar▁ty</w>
ick en</w>
ee ts</w>
▁w ants</w>
▁success ful</w>
▁discus s</w>
▁D aejeon</w>
igh tly</w>
▁brea k</w>
▁do or</w>
▁br anch</w>
r ul
mak i▁ng</w>
▁n ot
▁exp anding</w>
▁&q▁u ot▁;</w>
va▁ri ous</w>
ro r</w>
h ow</w>
priv a▁te</w>
pre par
hel p</w>
▁cas h</w>
t es</w>
▁wr ite</w>
▁f ishing</w>
▁counsel ing</w>
with o▁ut</w>
ul ner
ad minis
g a▁
▁h op
incl▁ud ing</w>
▁3 1</w>
ex pen
▁st ocks</w>
m ea▁
▁n ine</w>
▁1 5th</w>
w▁h en</w>
l et
▁Ch r
g un</w>
ed s</w>
ar ious</w>
▁st ep
h ead
ab l▁e</w>
▁l in
▁ex ternal</w>
▁T able</w>
▁Gyeong sang</w>
▁201 3</w>
inc o▁me</w>
ic ated</w>
ro te</w>
eed ing</w>
▁suspec ted</w>
▁sl eep</w>
▁2 3</w>
er man</w>
▁mon thly</w>
▁end eav
▁Ph il
p▁ rov
▁sup ported</w>
▁12 th</w>
g▁ r
be▁ c▁
▁l e
comp anies</w>
▁pic tures</w>
▁farm ers</w>
th ree</w>
pr▁ es
m il▁
i▁ st</w>
ay ▁s</w>
S. -
M in
unic ip
i▁ ght</w>
▁f a
▁D id</w>
hy ▁un</w>
ar ou▁nd</w>
▁p ack
▁Consid ering</w>
o ad</w>
▁mean ing
indus try</w>
al ▁s</w>
▁z one</w>
▁fac tory</w>
▁f ail
i▁n k</w>
▁pen sion</w>
vi ously</w>
pol ▁
g ame</w>
▁g ift</w>
▁eff ective</w>
e tion</w>
an y
▁no thing</w>
ou d</w>
▁advant age</w>
us i▁ng</w>
su per
o▁ ur</w>
i▁ me</w>
▁foc used</w>
▁Ch il
us es</w>
se▁ l
c ul▁
.▁ m.</w>
▁sur gery</w>
▁res c
▁in conven
▁consum er</w>
iz ati▁on</w>
N▁ orth</w>
2 1</w>
▁un its</w>
▁meas ure</w>
▁fl ight</w>
p▁ h
m ar▁
D em
▁t our</w>
str eng
per c
ho▁ me</w>
▁rel ations</w>
▁coll ap
▁K i</w>
▁19 8
is su
C enter</w>
▁s ongs</w>
▁kn owledge</w>
ter ing</w>
C e▁n
▁gr ade</w>
▁J ust</w>
j ec▁ts</w>
el e▁c
ot▁ al</w>
issi on
an e▁se</w>
▁sh ou
▁H ee</w>
yptoc urr
tici p▁
t o▁rs</w>
en ch</w>
▁c o</w>
eal ing</w>
▁8 th</w>
el ess</w>
con tr
▁sett lement</w>
▁foc using</w>
▁trust ee</w>
▁neg ative</w>
por t▁
id e▁nt</w>
en tur
den ly</w>
▁u m</w>
▁pos t
▁lim its</w>
▁install ation</w>
▁all ows</w>
bus▁ iness</w>
▁scre ening</w>
▁2 7</w>
ep h
▁qu ite</w>
1 6</w>
▁met ers</w>
▁c h▁
s e▁n
in ated</w>
g g
e▁ d
c ou▁ld</w>
c ar</w>
b ly</w>
▁conn ection</w>
▁Chung ch
end ly</w>
▁sub way</w>
▁special ized</w>
▁dis count</w>
t og
t ant</w>
di ff
bl ic</w>
p▁ er▁
ov ement</w>
c tion</w>
▁publ ished</w>
▁def ense</w>
▁coll ect</w>
or ies</w>
i▁ p
c a▁re</w>
a▁ in
▁mean ing</w>
▁cl im
ri es</w>
igh▁ ts</w>
▁pres ented</w>
▁f al
▁M et
y r
w oo</w>
w ater</w>
con duc
▁tr ust</w>
▁sol di
▁manag ed</w>
y ong</w>
p▁ ro▁
or d
▁per f
▁emphas ized</w>
▁chang ing</w>
ti▁ ce</w>
t oms</w>
▁d aughter</w>
▁Dep uty</w>
sum m▁it</w>
▁spr ing</w>
▁pri or</w>
▁h ▁
▁F air</w>
a▁n k</w>
a is
▁recor ded</w>
▁M ountain</w>
b ig</w>
▁ar r
ym b
f our</w>
▁ob jec
m a</w>
i▁ an</w>
M ay▁or</w>
▁lec ture</w>
▁O lymp
▁3 00</w>
sp▁ec ial</w>
re▁ e</w>
a ug
o▁ uld</w>
c ol
▁re flect</w>
▁ordin ary</w>
▁att emp
▁tick et</w>
▁tax es</w>
▁plat form</w>
p on</w>
is▁ ion</w>
em ▁s</w>
ea▁ se</w>
▁reven ue</w>
▁Air port</w>
ew ork</w>
▁sm art</w>
▁f ar
▁ex ports</w>
▁believ ed</w>
▁&a p▁os;s</w>
Un iversi▁ty</w>
▁e ating</w>
f ive</w>
c andid
as ing</w>
▁’ ’</w>
▁cont est</w>
ac cor
ten tion</w>
os an</w>
or g
a▁ tions</w>
anc ing</w>
S u▁
▁th inking</w>
▁P a
▁2 1st</w>
or der</w>
be▁ t
▁spen d</w>
▁sever e</w>
▁del ay</w>
▁car eer</w>
b▁ een</w>
b ody</w>
▁t ro
7 0</w>
▁gir l</w>
es t▁ed</w>
▁increa ses</w>
▁Pro motion</w>
In v
▁gen der</w>
▁al tern
▁adv anced</w>
▁H a</w>
le▁ ss</w>
b illi▁on</w>
ag s</w>
▁serv ed</w>
▁grea tly</w>
s ee</w>
j▁ ect</w>
h ae</w>
ffici ent</w>
▁m eal</w>
▁in ▁
▁endeav or</w>
ur i▁ty</w>
ov▁ er
R ep
9 ▁
▁R ules</w>
con s▁
am ▁p
row▁ th</w>
m i▁ll
ir it</w>
▁pro duce</w>
▁fil ms</w>
r ement</w>
h es</w>
S▁ t
Ch ang</w>
▁p etition</w>
▁Bud dh
rup tion</w>
▁S en
mo ti▁on</w>
ha▁ d</w>
d i▁s
▁revis ed</w>
op ic</w>
▁pr elimin
▁mark eting</w>
to▁ ok</w>
per s▁on</w>
h ar
h an</w>
ag ers</w>
w▁ oo</w>
re ign</w>
▁s urroun
▁concer n</w>
▁E l
tit ude</w>
th▁ en</w>
s i▁ng</w>
i ew</w>
En g
▁prom oting</w>
▁f ish</w>
▁des pite</w>
▁tw ice</w>
▁rev ital
▁fir s▁t</w>
▁avo id</w>
▁B yung</w>
res t</w>
d ire▁c
ati o▁n
▁Pen insula</w>
▁N ot</w>
y cl
r ying</w>
j▁ or</w>
ep tion</w>
ag ▁es</w>
▁ob serv
▁5 00</w>
om p
▁n orthern</w>
▁cont ains</w>
▁Un ion</w>
▁St ar
▁Or ganiz
f are</w>
emb▁ ly</w>
▁hos ted</w>
▁M ex
l▁ ow</w>
h ee</w>
T h▁
▁warr ant</w>
▁occ ur</w>
▁1 7th</w>
ic o</w>
h▁ im</w>
ash ion</w>
▁s e▁
▁m ist
▁enterpr ises</w>
▁arriv ed</w>
▁In t
tur ing</w>
D ong
▁suffer ing</w>
▁ser ve</w>
▁bir th</w>
▁bea uty</w>
▁b rought</w>
in▁ ed</w>
▁ass ets</w>
r u▁
e up</w>
▁ar ts</w>
▁p aying</w>
▁bus y</w>
mon y</w>
8 ▁
i▁c s</w>
5 00</w>
offic i▁al</w>
meas ures</w>
▁complet ely</w>
▁Ch risti
▁B usiness</w>
ver si
m▁ ed</w>
in j
▁mod ern</w>
▁adver tis
▁Em ployment</w>
wh a</w>
p at
m a▁n
ech n▁
c ri▁
Coun c▁il</w>
▁disab ilities</w>
▁E un</w>
l ines</w>
gre di
▁improv ing</w>
ri age</w>
j u▁st</w>
W or
1 1
▁perform ed</w>
▁fac tors</w>
vi ews</w>
in form▁
▁ tion</w>
j i▁n</w>
▁week end</w>
▁t rees</w>
▁Mot or</w>
im chi</w>
▁ref und</w>
▁comp uter</w>
prov ▁
eo k
ad ed</w>
v ey</w>
ic ul
2 4</w>
▁consum ption</w>
▁ itan</w>
oy ang</w>
j▁ ob</w>
▁there of</w>
▁sc reen</w>
▁M arket</w>
▁H all
est ock</w>
▁victi m</w>
k m</w>
g res
▁s occer</w>
▁m ountain</w>
▁develop ing</w>
s o▁n</w>
kno▁ w</w>
den uclear
A c
▁sugg ested</w>
▁U lsan</w>
ac ity</w>
▁th roughout</w>
▁t r▁
▁m id</w>
tr a
g▁ es</w>
▁suffer ed</w>
▁del eg
▁Kor▁ ea</w>
▁ o▁t;</w>
i▁ z
ilit a▁ry</w>
ff er</w>
ca▁ se</w>
c ing</w>
be▁ tw
▁j oin</w>
si▁ ve</w>
ar▁ ds</w>
▁pi ec
▁inc urred</w>
res pec
el▁ l</w>
d▁ ong</w>
▁N o.</w>
▁F l
▁war m</w>
▁e p
▁S ports</w>
▁&apo▁s ;</w>
ch ar▁ge</w>
▁G w
▁2 7th</w>
p▁ eop▁le</w>
i ate</w>
▁e ye</w>
▁201 2</w>
s ons</w>
n in▁g</w>
m ain</w>
fam i▁ly</w>
ch i▁ng</w>
b usiness</w>
▁prof essor</w>
tr i▁es</w>
o▁n t</w>
M E
K RW</w>
tur ed</w>
s▁ ocial</w>
▁Ir an</w>
produc ▁ts</w>
elec omm
▁for ced</w>
▁dam aged</w>
▁requ ire</w>
▁enter ing</w>
▁1 4
o▁r k</w>
ff s</w>
e i▁gn</w>
▁pro por
▁new sp
▁Y our</w>
i▁ od</w>
ch an▁ge</w>
▁di agnos
▁G im
▁&a pos;
p ut</w>
▁subsid ize</w>
▁in gredi
▁fi xed</w>
▁decrea se</w>
▁activ ity</w>
▁2 5th</w>
v▁ is
tro l</w>
st u▁d
l et</w>
es sive</w>
M o▁on</w>
▁prepar ation</w>
u▁ s</w>
ur o</w>
a h</w>
▁em p
ir▁ ec
an o</w>
es▁ t
▁un able</w>
▁sp eak</w>
▁m ale</w>
i▁ a</w>
b as▁
▁sur pr
▁dro p</w>
pr ac
ear▁ ly</w>
b ook</w>
ta x
ith er</w>
1 7</w>
▁ven ue</w>
▁m os
▁leg isl
▁f ru
or▁ ld</w>
lea d▁er</w>
be▁c ause</w>
▁join ed</w>
▁finis hed</w>
▁effici ent</w>
▁F ederation</w>
pos es</w>
▁sp ent</w>
▁b all</w>
su▁ l
f i▁n
Artic▁ le</w>
▁ch ann
▁an ti</w>
▁W ar</w>
▁1 4th</w>
arm ac
Ch airm▁an</w>
▁chec ked</w>
i a▁l</w>
h▁ av
gen er▁al</w>
ev e▁nt</w>
eo l</w>
c▁ y</w>
▁win ning</w>
▁res ervation</w>
▁broad cast</w>
q ▁
oo ks</w>
▁sc ore</w>
▁cal cul
l arg
il m</w>
en om
b▁ u
B r
▁trans l
b eh
▁w eight</w>
▁13 th</w>
▁r ob
w ea
▁vol ume</w>
▁W omen</w>
comm ittee</w>
▁prelimin ary</w>
p▁ ly</w>
m o▁n
iter ia</w>
e▁ w</w>
G en
▁k inds</w>
▁e d
1▁ st</w>
▁signific antly</w>
w er▁e</w>
▁bloc kchain</w>
n o
▁h usband</w>
▁expec tations</w>
▁dis cipl
▁in ev
▁Br az
s o
ar ks</w>
▁r ose</w>
▁elec tronic</w>
h ouseh
com ▁e</w>
Pro▁ v
▁v ill
▁f alls</w>
y et</w>
ong ly</w>
em erg
a▁l l
▁t rou
n e</w>
▁c row
▁9 th</w>
em ory</w>
coun try</w>
am p▁
Se ung</w>
▁discus sion</w>
▁consid er</w>
im p
▁ac tor</w>
pol iti
l evel</w>
d ly</w>
h▁ ee</w>
▁respec tively</w>
▁p re</w>
▁f illed</w>
▁underst anding</w>
▁proc essing</w>
▁3 0th</w>
u▁ l</w>
t▁ ure</w>
sch ed
ili ar</w>
des ign
▁prof its</w>
▁my self</w>
▁N a</w>
y ond</w>
wi▁th out</w>
is ▁h
ir ae</w>
b▁ r
▁sing er</w>
▁rem ains</w>
▁foreign ers</w>
▁Q u
ta ek</w>
say in▁g</w>
n ame</w>
ist ance</w>
K▁ RW</w>
▁proc eed</w>
▁appro priate</w>
th qu
s ing
ig ning</w>
et ers</w>
S ch
▁expl ain</w>
▁do g</w>
▁d eep</w>
▁coun ty</w>
▁budg etary</w>
j eong</w>
eg et
b ec▁
atis tics</w>
Ch o</w>
▁l i
▁caus ing</w>
t▁h an</w>
f ree</w>
d a▁ys</w>
r un</w>
n ecess
▁prac tic
▁lawmak ers</w>
▁ear n
▁ch oice</w>
▁Fac ebook</w>
prof ess▁or</w>
n a▁m</w>
ag ▁ed</w>
▁broadcas ting</w>
▁back ground</w>
ma▁ in</w>
l o▁ng</w>
il ▁e</w>
▁inten tion</w>
▁dep uty</w>
a▁ de</w>
ard less</w>
▁st anding</w>
▁shar ed</w>
▁im possible</w>
▁Ch ang
ig n▁
▁str ugg
▁nation wide</w>
▁d inner</w>
▁D el
ol v
Jap ane▁se</w>
▁N av
ty▁ pe</w>
inv est▁
i▁ st
il▁ y</w>
ic ious</w>
appl ic
▁w alk</w>
▁dec line</w>
▁Environ ment</w>
oo gle</w>
▁k ept</w>
▁ex clus
▁D ay</w>
▁Ch eon
f oc
▁confir m</w>
▁Com plex</w>
p ow▁er</w>
i ences</w>
▁c alls</w>
tific ial</w>
▁foll ows</w>
▁f r▁
▁recru itment</w>
▁bri ef
▁g ar
▁f oot
w on
h a</w>
aem un</w>
Y e
▁lo ts</w>
▁d ang
▁Des pite</w>
m em▁
bo ard</w>
▁th or
▁1 6th</w>
pol i▁cy</w>
cooper ati▁on</w>
o▁ od</w>
▁a th
▁J eon</w>
▁Americ a</w>
c oh
c el
ag r
▁w rote</w>
▁rel ig
in t</w>
c ept</w>
ag o</w>
▁P re
i▁ ss
ea s▁
▁shar ehol
th rough</w>
ter n▁
ra is
ex ▁p
att le</w>
tr al</w>
par t</w>
m y
ch▁ er</w>
ol▁ l
form s</w>
dis cus
a▁f t▁er</w>
▁lear ned</w>
▁concer ned</w>
▁cl aim</w>
▁C o</w>
t▁ ur
G w
▁d ead
▁S ou
▁B i
▁enter tainment</w>
▁P al
s▁ c
ove▁r n
en ge</w>
▁wr it
▁s il
▁con tribute</w>
vis it▁ed</w>
ay er</w>
Ad ministr
▁bor n</w>
▁b ag</w>
▁In st
us ▁e</w>
fo▁ od</w>
N ati▁onal</w>
▁happen ed</w>
▁b i
▁S ong
▁Rus sian</w>
▁2 6</w>
pol icy</w>
c ou▁n
Ch in
▁ro oms</w>
con fir
▁st able</w>
▁m ean</w>
▁believ es</w>
▁Sing apore</w>
s▁h ould</w>
op in
go ing</w>
fir e</w>
et er</w>
buil ding</w>
be ing</w>
. 0</w>
▁m ulti</w>
▁difficul ty</w>
▁cl ass
i▁ rd</w>
ex ecu
comp a▁n
al▁ l
sib▁ le</w>
im po▁r
C o▁m
▁se em</w>
▁depos it</w>
r▁ eg
o▁ y
b▁ l
al ty</w>
1 4</w>
med ium</w>
ci enti
P en
p ast</w>
▁&a pos▁;</w>
s▁ho▁ uld</w>
V ▁
▁di plom
m ul
i ors</w>
▁y oun
▁strateg y</w>
▁stor ies</w>
▁meaning ful</w>
▁2 8</w>
ye o</w>
wit h▁in</w>
stitu▁ te</w>
og s</w>
m ▁e</w>
c▁ ome</w>
J e▁
▁pl ants</w>
il ian</w>
g▁ un</w>
bu i▁l
▁dev ices</w>
▁cons erv
▁1 6
yn asty</w>
▁s ource</w>
▁ap prec
w▁h i▁ch</w>
memb ers</w>
i xed</w>
▁Se jong</w>
▁In ter
uc h
s▁t em</w>
ro▁ om</w>
l ar▁ge</w>
fl o▁or</w>
fin a▁ncial</w>
f a▁c
▁iss u
▁cor respon
▁ap artments</w>
um n</w>
p▁l an</w>
eor ological</w>
▁opport unities</w>
▁bro ther</w>
um b
fo▁ ur</w>
e a▁rs</w>
▁subpar agraphs</w>
▁jud ge</w>
pro▁ ve</w>
o▁ d</w>
offic ial</w>
l ook</w>
inc rea▁se</w>
d▁ en</w>
R us
▁2 6th</w>
und er▁
ign ed</w>
w at
M ed
▁dec ide</w>
▁ad mission</w>
▁Wh ite</w>
▁V illage</w>
▁H ave</w>
tiv ity</w>
itt e▁e</w>
▁n ice</w>
▁hand le</w>
▁conduc ting</w>
tric ity</w>
t own</w>
h a▁lf</w>
d▁ uri▁ng</w>
devel op▁
c il
▁cooper ate</w>
eo s</w>
at e▁s</w>
ast es</w>
▁w ear</w>
▁respon d</w>
ar tens</w>
T ae</w>
▁occ urs</w>
▁2 8th</w>
u ven
oti onal</w>
A ff
▁wor ried</w>
▁ro ads</w>
▁c ateg
t aining</w>
om y</w>
i▁ se</w>
d om</w>
▁s un
▁l isten
▁M yung</w>
n ight</w>
der ship</w>
▁w el
▁s i</w>
▁l iter
▁fe eling</w>
▁direc tors</w>
D o</w>
▁g ets</w>
▁ch ea
▁c over</w>
c u▁r
&ap▁os▁; ll</w>
▁coun ter
▁con secu
▁W ould</w>
▁B ased</w>
sti c</w>
C om▁
▁wea k</w>
▁represent atives</w>
we▁ en</w>
v e▁
▁T ourism</w>
p e▁n
c ustom
an c▁es</w>
▁med icine</w>
▁expen sive</w>
▁comm ission</w>
▁F ire</w>
n y</w>
ap s</w>
1 ,
▁innov ation</w>
te▁ st</w>
▁lea ving</w>
▁de ep
▁anim als</w>
▁R ev
▁L ine</w>
fin anci▁al</w>
b ri
ou T
h wa</w>
construc ti▁on</w>
▁sh or
▁pati ent</w>
yp e</w>
r▁ eal
▁w earing</w>
Metropol ▁itan</w>
▁g old</w>
offici a▁ls</w>
g e
e z
devel ▁
▁H uman</w>
a▁ ir</w>
▁ind ex</w>
▁in frastructure</w>
▁comp et
g a▁me</w>
ff▁ ice</w>
el ong</w>
▁l ived</w>
e tr
a▁n d
&ap▁os;▁ ll</w>
yph oon</w>
t ains</w>
e e▁n</w>
al s▁o</w>
sy▁ st
sup port</w>
i▁n ess</w>
▁Tai wan</w>
s ex
ic a</w>
gover▁n ment</w>
S ung</w>
J in</w>
▁v ote</w>
▁An aly
pro▁ duc
o g</w>
mon▁ th</w>
meas ur▁es</w>
are unm
Bus▁ an</w>
▁decrea sed</w>
▁cr iteria</w>
▁cr iminal</w>
▁app earance</w>
▁academ ic</w>
per for▁m
ur i</w>
r ent</w>
w ar</w>
qual i▁ty</w>
pp ed</w>
m ut
Gyeo▁ng gi</w>
▁prom oted</w>
▁judg es</w>
▁c at
ain▁ ed</w>
▁tempor ary</w>
ug s</w>
s▁ up
do▁ es</w>
Jap an</w>
▁symp toms</w>
▁off er</w>
▁n amed</w>
▁cr yptocurr
▁ach ieve</w>
fi▁ ve</w>
e ti▁ng</w>
▁sh ort
▁W oo</w>
w▁ a▁s</w>
re p
entur y</w>
▁smartph one</w>
▁loo ked</w>
▁dev ice</w>
▁Prosec utors</w>
▁L ife</w>
pro mo▁
ot o</w>
g h▁
es us</w>
ma j▁or</w>
8 0</w>
▁rec on
▁acc ur
▁s eat</w>
▁gr and
w are</w>
resid ▁
▁techn ologies</w>
▁st yle</w>
▁f oods</w>
ri▁ ed</w>
re tur
intro duc
f▁ ir
a▁ id</w>
G u
1 4
▁t o
▁t en</w>
▁charac ters</w>
r on
N or
▁dis eases</w>
ch arge</w>
ar▁ k</w>
le▁ ft</w>
jec ted</w>
id ▁e</w>
ab ilities</w>
o▁ p</w>
om▁ en</w>
id ays</w>
ar▁ t
▁par liam
jec ▁t</w>
c itiz
▁en ded</w>
▁B ri
ist en</w>
f ication</w>
▁ex ec
un d▁
t▁ es</w>
it▁ h
be fore</w>
▁d ead</w>
▁Ar t</w>
o▁s s</w>
l ot</w>
g e▁t</w>
av es</w>
▁Y outh</w>
t▁h is</w>
sec ond</w>
in ally</w>
hy un</w>
e k
ch i▁ef</w>
▁report ers</w>
▁dig ital</w>
▁acc ept</w>
s▁ec ond</w>
pp er</w>
devel o▁p
ch i▁l
ac▁ k</w>
▁k il
▁j ourn
▁Y i</w>
▁Ch urch</w>
rou▁ p</w>
l ic</w>
b▁ al</w>
▁Fr ance</w>
▁B ur
ot es</w>
h ood</w>
an▁ ds</w>
▁extr a</w>
d re▁
H an
▁mis sing</w>
▁Met eorological</w>
stitu tional</w>
&ap▁os▁ ;s</w>
▁se emed</w>
▁requir es</w>
▁A I</w>
▁2 4th</w>
in f
al es</w>
S a▁m
▁con ver
c ultur▁al</w>
▁R oh</w>
▁G erman</w>
eval u
comm od
a▁ st</w>
▁elec tions</w>
f ea
▁w ind
▁rul es</w>
▁lun ch</w>
▁f ol
▁1 ,000</w>
T echn
▁competi tiveness</w>
▁R ule</w>
r an
n orm
A T</w>
&a▁po▁s ;m</w>
▁pus h</w>
▁d ay
y▁ ing</w>
d u▁r
A gric
▁compl etion</w>
▁beg in</w>
▁appl ying</w>
Gover n▁or</w>
▁K y
pol i▁ce</w>
ac qu
▁m oun
▁inj ured</w>
▁1 7
st ate</w>
inc r▁
en g▁
a▁ pp
atur day</w>
an ning</w>
▁design ation</w>
▁Am id</w>
▁2 2nd</w>
ul atory</w>
id en▁t</w>
▁oper ator</w>
▁gr ounds</w>
▁S ea</w>
▁P ort</w>
r▁ i</w>
ic ro
be▁tw een</w>
▁v o
▁res tor
w omen</w>
t al▁
ro▁ ad</w>
h ab
▁s u▁ch</w>
▁experi enced</w>
n at▁ional</w>
et▁ c.</w>
▁aut onomous</w>
w▁ ell</w>
es ti▁
be▁t we▁en</w>
▁comp r
s h</w>
r▁ ev
o▁c k</w>
facil iti▁es</w>
evel s</w>
b it</w>
R eg
vi▁ ew</w>
resid ents</w>
mp ;</w>
ex es</w>
&a▁ mp;</w>
▁i sn</w>
n e
iti o▁n</w>
e f▁f
a es
▁sec ured</w>
▁U. S.-
o▁ v
n▁ o</w>
ess▁ es</w>
▁volunt eer</w>
w ar
N▁ ew</w>
Min▁ is▁
▁s ides</w>
▁mean time</w>
▁independ ence</w>
▁dr inking</w>
por t▁ed</w>
ic▁ ation</w>
▁soldi ers</w>
▁sol ution</w>
▁Sp eaker</w>
▁S ocial</w>
re duc
pur su
▁sh ape</w>
▁r i</w>
▁anim al</w>
▁E specially</w>
▁1 .
l▁ ea
er ▁ed</w>
▁st opped</w>
▁f an</w>
▁app ear</w>
▁Mat ters</w>
t in
l arge</w>
amp ion
▁sud denly</w>
▁clas si
▁b a▁
▁as king</w>
pol i▁
▁repor ter</w>
▁ab use</w>
▁2 ,
w r▁
e▁ un</w>
en der</w>
be▁c aus▁e</w>
▁or ders</w>
▁2 3rd</w>
t▁ op</w>
n or
l in
f ast</w>
s▁ chool</w>
par ticip▁
kno▁ wn</w>
iv▁ il</w>
er ate</w>
auth or
▁urg ent</w>
▁tas k</w>
▁S w
ti m▁
▁pain ting</w>
▁mer ch
▁ass essment</w>
▁ac tors</w>
▁Gyeong sang
▁At tention</w>
unicip al</w>
▁t ree</w>
▁Un til</w>
el ines</w>
som e▁
m▁ ade</w>
g ot</w>
aw ay</w>
C it▁y</w>
▁r ent</w>
▁farm ing</w>
s▁ m
is t▁
am ic</w>
▁s now</w>
▁offic es</w>
▁any one</w>
▁9 0</w>
st art</w>
he▁ e</w>
▁norm al</w>
▁favor ite</w>
▁Ac tor</w>
u ce</w>
oc k
▁tour ist</w>
▁sh op</w>
▁res erv
▁qu anti
▁ob tain</w>
▁applic ants</w>
wo▁ o</w>
▁r ail
w▁ ork</w>
w▁ il▁l</w>
▁streng th</w>
si▁ an</w>
Manag eme▁nt</w>
▁reti rement</w>
▁Con f
on s
oc i▁
d ents</w>
▁up on</w>
▁offic ers</w>
▁guarant ee</w>
t▁ ;</w>
rea l
in eering</w>
▁tick ets</w>
▁interpre ted</w>
▁expres s</w>
t ot▁al</w>
am b
Hy un</w>
▁w all</w>
▁mul ti
la▁r gest</w>
i▁ ld</w>
en ever</w>
d eb
cla▁ ss</w>
c enter</w>
sen i▁or</w>
n a▁
▁st ated</w>
t▁h em</w>
me eting</w>
est ment</w>
▁rem ember</w>
▁inter esting</w>
▁d ri
▁cl early</w>
vis▁ it</w>
inform ati▁on</w>
a▁n ge</w>
ati▁ ons</w>
ati z
S S</w>
1 6
▁b aby</w>
▁aff ected</w>
▁Hy e</w>
wor ki▁ng</w>
tis h</w>
en vir
ec onom
c oo
c e▁r
all ey</w>
▁re view
▁fin ally</w>
▁dis pl
▁S oo</w>
t a▁l
m i▁n</w>
m ilita▁ry</w>
ed n
ec ti▁on</w>
▁sign s</w>
▁execu tives</w>
▁caus es</w>
o▁ und</w>
l ear
il ing</w>
ac ted</w>
▁tit le</w>
▁des cri
ye o▁ng</w>
pers on
en t▁ed</w>
▁th rea
rec omm
p y</w>
law mak
en tion</w>
be▁ st</w>
atten ti▁on</w>
▁t een
▁l iqu
er o</w>
▁G oogle</w>
r▁ ef
m id
k i</w>
im m
ev ▁er</w>
enom en
der ing</w>
u ts</w>
r▁ el
c irc
▁m il
▁cr imes</w>
▁camp aign</w>
t able</w>
s▁ y
par tic
iti me</w>
at trac
ar ti
2 3</w>
▁design ate</w>
▁Y u</w>
b i▁ll
J u▁
▁shar es</w>
▁coun ties</w>
▁complain ts</w>
o▁ o</w>
f un▁
▁wat ched</w>
▁sam ple</w>
▁ren ew
▁eff ort</w>
▁ab ol
▁P ri
▁Canad a</w>
▁argu ed</w>
is cal</w>
entr▁ al</w>
▁wh e▁re</w>
▁t ext</w>
▁pl astic</w>
▁f o▁r</w>
▁brea k
▁Sm all</w>
in▁ es</w>
b ud
app y</w>
▁som etimes</w>
▁fig ure</w>
l a
g row▁th</w>
expec ted</w>
▁r ain
ex hib
ef ully</w>
▁v ia</w>
▁surroun ding</w>
▁form ulate</w>
▁cam era</w>
▁Serv ices</w>
par t
h e▁r</w>
&▁apo▁s ;</w>
▁re ducing</w>
th us
r it
pos▁ ;t</w>
ir es</w>
in nov
7 ▁th</w>
▁ha ven</w>
▁dou ble</w>
▁civ ic</w>
▁S ohn</w>
▁H eung</w>
rea ding</w>
all eg
▁s in▁ce</w>
▁elec tricity</w>
▁curr ency</w>
▁cou ple</w>
s oon</w>
▁sub jects</w>
▁m eat</w>
w in</w>
ur s
th▁ rou▁gh</w>
re▁ sid
▁w it
▁th er
▁mach ine</w>
▁M ovement</w>
th day</w>
ten ed</w>
m▁ arket</w>
ic ide</w>
app ear
▁th eater</w>
▁sc ale</w>
▁c ell</w>
▁Mal ay
pe▁ ople</w>
ev e▁n</w>
▁s ymb
▁dr ug</w>
ret a▁ry</w>
fam ily</w>
▁for ec
thea st</w>
N am
E n▁
▁s quare</w>
z a</w>
p al</w>
in fl
d▁ y</w>
▁guid ance</w>
▁fea tures</w>
▁N owon</w>
▁Indi a</w>
if th</w>
dis c
▁pr ison</w>
▁on es</w>
▁for ces</w>
pro ject</w>
oy al</w>
hy u▁n</w>
A s</w>
▁conc ept</w>
th a▁n</w>
pres s</w>
p i▁ng</w>
eas ▁e</w>
M ay</w>
▁syst ems</w>
▁sc en
▁o ▁n</w>
▁d e▁
▁be yond</w>
▁K o▁
s eas</w>
n eung</w>
c▁l ud
▁pun ishment</w>
▁inst all</w>
st at▁
r ig▁ht</w>
p a</w>
▁sl ow
▁tal king</w>
▁pro per</w>
▁Mus eum</w>
en▁ g
Univer sit▁y</w>
▁/ /</w>
p▁ ut</w>
pu▁ blic</w>
pro m▁
in▁ a</w>
in clu▁
g en▁
b it
▁rep air</w>
▁l isten</w>
su▁ b
ne▁ ed</w>
indus t▁ry</w>
▁U S
u tr
ti▁ cs</w>
oper ati▁on</w>
im port
ar di
▁wal king</w>
▁semiconduc tor</w>
h ard</w>
c eme▁nt</w>
▁gu ide</w>
▁exchang es</w>
ho▁ w</w>
▁int elligence</w>
e t▁her</w>
as ion</w>
▁sou thern</w>
▁pl eas
▁law suit</w>
▁expl an
▁L aw
▁B TS</w>
f▁or mer</w>
ag re▁
▁u pper</w>
▁cor rect</w>
▁J esus</w>
sit u▁
pr▁ iv
ar e▁as</w>
S ang</w>
foll owi▁ng</w>
e▁ an</w>
▁f ish
▁chec king</w>
▁S ch
▁O ther</w>
v ehic
G overnment</w>
▁sen ding</w>
▁al bum</w>
an s▁
2▁ nd</w>
Se▁ oul</w>
work e▁rs</w>
t▁h s</w>
ou te</w>
ong ol
P ubl▁ic</w>
▁st one</w>
▁st and</w>
▁ar tificial</w>
tic ally</w>
i ans</w>
comp▁ an
▁In formation</w>
▁B u
o x</w>
o ong</w>
con tr▁
con n
a▁ ti▁ons</w>
ang ed</w>
Ch oi</w>
▁Lea gue</w>
op port
l y
▁fir m</w>
▁Fr ench</w>
sur ▁
il▁l ion</w>
el lec
P▁ ar
A c▁t</w>
▁u l
▁m ental</w>
▁deb ate</w>
▁b ut
▁Super visory</w>
perform an▁ce</w>
p ons</w>
▁expen d
me tics</w>
▁suspen ded</w>
▁re pres
▁dis play</w>
▁con st
▁B as
serv ice</w>
s ch▁
on ally</w>
aj or</w>
▁m ag
▁func tions</w>
▁H ospital</w>
a▁l ly</w>
D ay</w>
▁v ulner
ou▁ t
iti gation</w>
em o▁ny</w>
▁notif ied</w>
▁experi ences</w>
▁ex cluded</w>
▁del iver</w>
▁ch icken</w>
▁2 9</w>
ul▁ ts</w>
t e▁rs</w>
sh▁ ow</w>
ne▁ ss</w>
i▁ th</w>
f ur
ev e▁ry</w>
▁grad ually</w>
▁consecu tive</w>
▁T wo</w>
investig ati▁on</w>
buil di▁ng</w>
▁sub st
▁max imum</w>
▁C r
stitu tion</w>
m as</w>
ead quarters</w>
▁r ich</w>
f▁ er
Y eong
▁el se</w>
▁F oll
sm all</w>
ph one</w>
as k</w>
g roup</w>
ad or</w>
p yeong</w>
ft e▁r</w>
&apo▁s ;▁s</w>
▁t own</w>
▁pro b
▁ingredi ents</w>
▁bal ance</w>
▁ad d</w>
pa▁r t</w>
iz e▁d</w>
▁elec ted</w>
ver▁ y</w>
l▁ ocal</w>
▁y ea▁r</w>
▁c ore</w>
▁P omp
l ig
cl ose</w>
▁se x</w>
▁i ce</w>
▁altern ative</w>
▁Th anks</w>
▁201 1</w>
f▁ ac
c▁ al</w>
Ass embly</w>
▁war ning</w>
▁respec t</w>
▁men u</w>
▁kinderg artens</w>
▁exc essive</w>
▁accep ted</w>
s eason</w>
l eft</w>
h▁ ard</w>
e▁r ed</w>
Tr ans
▁view ers</w>
▁t ▁h
▁neigh bor
▁g ives</w>
▁f ashion</w>
▁M iddle</w>
▁E very
t▁ ax</w>
me an
▁imm igr
l aun
ill a</w>
fi eld</w>
S p▁
▁th er▁e</w>
a▁ tive</w>
M in</w>
▁viol ation</w>
▁ref ug
▁cryptocurr ency</w>
▁Austral ia</w>
l▁ aw</w>
ipp ines</w>
L ea
▁youn ger</w>
▁alleg ations</w>
▁201 0</w>
wor ks</w>
re p▁
og ue</w>
ed ding</w>
a▁ se</w>
ateg y</w>
T C</w>
▁w a▁s</w>
▁discus sed</w>
▁dem ocr
▁dam ages</w>
▁I T</w>
▁Exper ts</w>
w at▁er</w>
it▁ ional</w>
adv ant
▁H otel</w>
iz i▁ng</w>
c u▁l
▁sp eech</w>
▁reg ister</w>
▁reg ardless</w>
say i▁ng</w>
▁sent ence</w>
▁pre fer
▁cap acity</w>
▁Ear lier</w>
▁D o
prov i▁de</w>
p ass
lo b▁al</w>
etropol it▁an</w>
▁wor ker</w>
▁integr ated</w>
▁frequ ently</w>
▁bas eball</w>
▁Rep ublic</w>
▁Mon day</w>
w ee
ub s</w>
t▁ en</w>
fi▁ nd</w>
coh ol</w>
is try</w>
2 7</w>
▁ship ping</w>
▁enh ance</w>
▁continu ously</w>
▁G oyang</w>
l a▁nd</w>
in k
com▁ m
▁Be fore</w>
u ti
in ks</w>
ang ju</w>
Ch eong
▁deb t</w>
ent ually</w>
al l▁y</w>
▁u ses</w>
▁col ors</w>
ur ▁e</w>
i▁s it</w>
it ting</w>
d ate</w>
▁plac ed</w>
▁import ance</w>
▁e x</w>
▁con tr
▁con cluded</w>
i ance</w>
f oll▁
e▁n tial</w>
dro gen</w>
as s▁
th o▁se</w>
chil dren</w>
▁entr ust</w>
▁On ly</w>
▁Coun ty</w>
▁2 9th</w>
th i▁rd</w>
e▁c k</w>
▁pre t
▁passeng ers</w>
▁establish ing</w>
v id
s ong</w>
indus ▁
i able</w>
In stitu▁te</w>
▁pres entation</w>
wor▁ k</w>
necess a▁ry</w>
diff▁ er
ca▁ me</w>
b a▁ck</w>
as t▁er</w>
L i▁
&ap▁os; ▁s</w>
▁fal se</w>
▁acc um
inter ▁
ay▁ ing</w>
Educ ati▁on</w>
▁exc eed</w>
▁con struc
▁cam p</w>
ou g▁h</w>
air ▁
▁n ames</w>
▁conn ected</w>
▁Th ose</w>
ut u▁re</w>
og▁ y</w>
n a</w>
if f</w>
exp▁ ec▁ted</w>
▁draw n</w>
z be
w in
su▁ re</w>
sh ow</w>
k e▁
is sue</w>
▁trad ing</w>
▁purch ased</w>
▁approv ed</w>
pro d▁uc
▁pl en
▁g ather</w>
▁ev ening</w>
▁aw are</w>
us▁ ic</w>
t echn▁
se▁l f</w>
r un
el ec▁
a▁b out</w>
▁law s</w>
▁fres h</w>
▁c alling</w>
▁J ud
yong yang</w>
de▁ v
T ▁h
▁dep artments</w>
▁dead line</w>
▁b oy
▁Fr iday</w>
iv ision</w>
for t</w>
▁liv estock</w>
ei▁ r</w>
ag ement</w>
▁t el
▁histor ical</w>
▁acc used</w>
▁I tal
o▁m en</w>
o▁ ther</w>
or e
or ation</w>
m▁ e
f e
c▁ r
▁r ural</w>
su▁ m
sti t
n ew
as▁ s
Ass emb▁ly</w>
▁see ing</w>
▁disp ute</w>
▁ar rive</w>
▁In surance</w>
res ear
gr y</w>
fac tion</w>
f ou▁nd</w>
a▁l so</w>
▁s ister</w>
▁m emory</w>
▁l ines</w>
r▁ et
pos ▁ed</w>
bl ▁e</w>
▁sent enced</w>
produc ts</w>
ol ic</w>
▁subsid y</w>
▁independ ent</w>
▁compr ised</w>
▁be hav
▁T em
us eok</w>
au d</w>
▁ph enomen
▁out door</w>
w▁h ere</w>
pro jec▁ts</w>
pl▁ ay</w>
f ic</w>
comm itt▁ee</w>
un ately</w>
distr i▁ct</w>
c▁ on▁
▁techn ical</w>
▁s eas
▁individ uals</w>
j ud▁
g▁ o</w>
ant i</w>
▁v eget
x im
un t▁il</w>
s ent
s ea
ma j
con cer
▁pot ential</w>
▁comm emor
▁Bri tish</w>
▁5 G</w>
thus i
pos ing</w>
k ▁e</w>
i et</w>
▁re ply</w>
un t</w>
c ong
▁resid ential</w>
▁reg ulation</w>
▁en forcement</w>
qu ir
h▁ a▁s</w>
aud i</w>
Se o</w>
▁repor ting</w>
▁l ose</w>
▁judg ed</w>
▁entr ustment</w>
▁ass ociation</w>
wh e▁n</w>
oh ang</w>
includ ing</w>
fi▁ re</w>
f a▁m
comm unic
▁prac tical</w>
wh y</w>
ed er
▁rec overy</w>
▁l isted</w>
▁dis tributed</w>
▁Indones ia</w>
▁3 5</w>
con trac
an am</w>
P r
▁l evels</w>
ne▁ w</w>
ist an</w>
em pl▁
am ily</w>
K yung</w>
▁reflec ted</w>
▁G ir
und am
p en</w>
▁E ach</w>
r▁ es▁
represent ati▁ve</w>
▁join tly</w>
▁ ju</w>
is s▁
▁rece ives</w>
▁C oll
itiz en</w>
b ok</w>
Y oo</w>
D ae</w>
&▁apo▁s ;s</w>
▁ass ault</w>
▁Star ting</w>
▁Kor eas</w>
tric ts</w>
sal ▁es</w>
o▁ t▁;</w>
l ate</w>
l as▁t</w>
f all</w>
S p
▁con v
su▁p port</w>
int▁ er
ME s</w>
B l
▁mos tly</w>
▁en try</w>
▁am end
t▁ ee</w>
p eo▁ple</w>
an▁ ies</w>
▁with draw
▁o r▁
▁inv est</w>
▁adver ti
tiv ▁e</w>
t ;</w>
im pl
h ou▁se</w>
a▁ ch</w>
▁dist ance</w>
▁con ▁
▁Kak ao</w>
us ual</w>
ac ▁h
S tr
▁aim ed</w>
w a▁rd</w>
ok yo</w>
l e
i ents</w>
▁effici ency</w>
▁dr aw</w>
▁Analy sts</w>
est▁ ic</w>
▁r um
▁discus sions</w>
▁c ul
▁b ic
▁Organiz ation</w>
tak ▁e</w>
sum mit</w>
s al</w>
ospit als</w>
o oting</w>
ea▁ ce</w>
▁syst em
▁ad ding</w>
t w▁
proc ess</w>
b a▁ll</w>
▁s etting</w>
w▁ ere</w>
s atis
p▁ s</w>
d▁r en</w>
▁d rea
u ti▁on</w>
p ati
▁fir ms</w>
▁J oon</w>
o f▁
inter e▁st</w>
al o▁ng</w>
ac ▁e</w>
▁transac tion</w>
per form▁
▁suspec t</w>
▁recomm endation</w>
▁co ast</w>
y▁ eon</w>
▁transac tions</w>
▁bl ue</w>
▁at tract</w>
y▁ le</w>
l▁ ot</w>
iber ation</w>
at tr
H an</w>
A ss▁
3 0
▁f air
▁c over
at ched</w>
am m
▁prosec utor</w>
▁fl ex
▁dest ro
▁Foll owing</w>
sh op</w>
ro ad
res sed</w>
offic ▁
l ive</w>
ea l▁th</w>
V iet
▁r an</w>
▁fl o
▁c ▁
ta i▁n
n a▁me</w>
chit ec
an d▁ed</w>
Min▁is▁ try</w>
▁t ired</w>
▁str ongly</w>
▁newsp aper</w>
▁comm itted</w>
s▁ pec
e▁ ven</w>
E D</w>
▁reg ard</w>
▁canc el</w>
▁G ames</w>
o f
le▁ ad</w>
ea s▁ed</w>
▁th ous
▁m ot
▁hel ps</w>
▁I l
per i▁od</w>
id den</w>
f ying</w>
b▁ an</w>
a▁ ting</w>
ap ers</w>
▁ear thqu
c er▁
W h
▁tas ks</w>
▁ess ential</w>
▁discipl inary</w>
▁H er
ut ers</w>
p ay</w>
emb ers</w>
▁tr ack</w>
▁H eadquarters</w>
▁A fr
qu ar
oc ▁al</w>
i▁ ded</w>
ar ity</w>
▁st ations</w>
▁inter ests</w>
▁com posed</w>
▁certif ication</w>
▁C C
let es</w>
it ch
B usan</w>
▁s yn
▁ran ked</w>
▁finis h</w>
▁convers ation</w>
▁X i</w>
▁K T</w>
prov inci▁al</w>
m i</w>
dec id▁ed</w>
Y ong</w>
Se ong
O ffice</w>
O ffic
L e▁e</w>
▁m ark</w>
▁bro ken</w>
▁Mex ico</w>
▁G eum
sp e▁c
ep ren
2 8</w>
▁sh r
▁out standing</w>
▁c o▁n
▁run s</w>
rec▁ e
fo▁ reign</w>
e▁r ▁e</w>
▁pus hed</w>
201 9</w>
▁trea ted</w>
▁rem ain</w>
m▁ ore</w>
he▁ re</w>
ev e▁r</w>
en d▁ed</w>
c o▁r
ain t
▁id eas</w>
▁e co</w>
▁cour ses</w>
s afe▁ty</w>
re▁ al</w>
o▁w s</w>
med ic▁al</w>
i o▁us</w>
ail and</w>
ad ded</w>
▁over come</w>
▁ob tained</w>
▁Ap ple</w>
inc es</w>
▁m ur
▁equ ipped</w>
▁de ems</w>
ig▁ h</w>
an y▁
▁lea dership</w>
▁ap p</w>
elec tion</w>
▁resol ve</w>
▁exten ded</w>
u al▁ly</w>
s ol▁
p ur▁
on▁ d</w>
be▁c▁ ause</w>
2 00</w>
▁un i
▁s ave</w>
▁o kay</w>
▁doc tor</w>
▁car rying</w>
par ed</w>
ou p</w>
in▁ al</w>
h alf</w>
e▁c t▁ed</w>
▁bott om</w>
w▁ in</w>
w ol</w>
u▁n e</w>
par tic▁
▁ma il</w>
f▁ or▁
▁sal ary</w>
▁C ar
me a▁ns</w>
i▁ nd</w>
f▁ it</w>
edn esday</w>
at ures</w>
▁mus eum</w>
▁grad es</w>
p▁ ay</w>
employ ment</w>
▁resc ue</w>
▁l oved</w>
▁hom es</w>
▁encour age</w>
▁Hall yu</w>
y a▁ng</w>
fac ▁
a i
sel ect▁ed</w>
o▁ u</w>
develop ment</w>
d ata</w>
and al</w>
G overn
▁applic ations</w>
▁S aturday</w>
▁Chr ist
pursu a▁nt</w>
m other</w>
airper s▁on</w>
G un</w>
▁corpor ations</w>
t og▁
ad diti
▁vulner able</w>
▁subpar agraph</w>
▁m anner</w>
▁lat est</w>
▁i sland</w>
▁b u▁t</w>
▁Chil dren</w>
m▁ s</w>
a▁ ve</w>
Un iversity</w>
▁sup plem
▁im posed</w>
▁fea ture</w>
▁attrac ting</w>
y o▁ng</w>
et in▁g</w>
▁proced ure</w>
▁eff ec
▁compet ent</w>
▁B aek
▁200 9</w>
om in
m ent▁al</w>
ib ility</w>
fr on
G▁ yeong
▁trans ferred</w>
▁tr uth</w>
▁th anks</w>
▁stor age</w>
▁P eace</w>
under st
r em▁
or ig
▁enjoy ed</w>
t▁ im
s▁h a▁ll</w>
n u▁
fer en▁ce</w>
d▁ le</w>
ag▁ ainst</w>
▁st ar</w>
▁lawmak er</w>
u an</w>
id e▁d</w>
id enti
ash ing
M ar▁
3 1</w>
▁poll ution</w>
▁min ute</w>
▁fl ow</w>
▁En ergy</w>
u▁m p</w>
um▁ an</w>
P er
C▁h o</w>
▁S audi</w>
▁An other</w>
tra▁ de</w>
t en▁
f▁ orm
C o▁
▁mar riage</w>
s epar
pur ch
ol l</w>
n eed</w>
k▁ er</w>
investig ation</w>
c▁ omm
co▁m m
Cor por
i▁ tion</w>
e▁x p
d▁ i
cons ult
I N
▁suspen sion</w>
▁pro spec
w ise</w>
och o</w>
g▁ o
▁W est</w>
▁vid eos</w>
▁s af
▁g olf</w>
▁arti cles</w>
row n</w>
b eg▁
Chung ch
▁wor ▁
▁bus es</w>
▁Mot ors</w>
ub▁ lic</w>
okes man</w>
is ure</w>
e ver
d e▁d</w>
b i
a▁ ke</w>
▁judg ment</w>
▁ex tent</w>
▁Pro ject</w>
v o
t ingu
t ar
em ical</w>
ci▁ l</w>
I m
▁su itable</w>
▁propor tion</w>
▁p ower
▁Sing er</w>
▁Rep .</w>
u▁ ce</w>
s ocial</w>
K y
▁suspic ion</w>
▁plan e</w>
▁brief ing</w>
w a▁r
it or
for ei▁gn</w>
R e▁
▁sp ot</w>
▁sh ot</w>
▁Se ong</w>
ol es
a▁t a</w>
G y▁
▁stat utes</w>
▁f ▁
▁b ull
re▁ as
pen s
g▁ lobal</w>
d om▁
adem y</w>
Y oon</w>
▁c entury</w>
▁atten ding</w>
s▁ ity</w>
ro▁ up</w>
manag▁ ement</w>
ent a▁ry</w>
c ar▁
▁mod els</w>
▁bel ong
▁On ce</w>
▁Med ical</w>
▁20 s</w>
Ch▁ in
▁happ en</w>
▁R yu</w>
ot▁ her</w>
ograph y</w>
fun c
4 5</w>
▁quanti ty</w>
▁min im
▁del icious</w>
▁ac compan
▁Y ouT
▁Wh ich</w>
ou ldn</w>
h▁ ere</w>
g ang</w>
ac ts</w>
▁star s</w>
▁exper t</w>
▁d ▁
▁Pomp eo</w>
w▁h at</w>
receiv ▁ed</w>
2 5
▁kinderg arten</w>
▁M y
▁mar ried</w>
▁Cheon an</w>
t▁ ak
sur y</w>
o▁n ly</w>
as an</w>
▁conserv ative</w>
st o▁ry</w>
n▁ el</w>
id▁ ent</w>
2 6</w>
▁fin ding</w>
▁fail ure</w>
▁disclos ure</w>
▁S ub
▁Phil ippines</w>
v i▁c
g i▁
ec h▁
S▁ .</w>
▁par ti
▁m ixed</w>
▁fl owers</w>
▁comm ents</w>
▁Se ok</w>
tea▁ m</w>
m i▁t</w>
hel▁ d</w>
e▁ st▁
epren e
▁p utting</w>
▁dr unk</w>
▁child care</w>
t▁ eam</w>
f arm
c▁ om▁
U n▁
Gyeong g▁i</w>
▁s tic
▁s inc
▁rap id</w>
▁ev entually</w>
t▁h ey</w>
ol den</w>
m▁ ake</w>
l a▁te</w>
ir ation</w>
exper ien▁ce</w>
as ters</w>
19 ▁
▁un d▁er</w>
▁m ayor</w>
▁f ight</w>
w a▁y</w>
u tions</w>
t▁w een</w>
grow th</w>
d an▁ce</w>
ad y</w>
K▁or e▁a</w>
▁concentr ation</w>
▁ag ree</w>
▁A ud
serv ▁
pr in
p .</w>
▁m ob
t▁ ern
me▁ ans</w>
kn own</w>
fr o▁nt</w>
f eel</w>
ex ec
▁l itigation</w>
▁com fortable</w>
▁c enter
▁applic ant</w>
il ot</w>
e▁ ad</w>
K ang</w>
▁rul ed</w>
▁Pyeong taek</w>
v ious</w>
s oci
ri er</w>
h old</w>
▁w oul▁d</w>
p op</w>
is su▁
▁r oute</w>
▁pri ority</w>
▁b ags</w>
▁affili ated</w>
▁rea dy</w>
▁p sych
▁hol idays</w>
p▁ eopl▁e</w>
per iod</w>
aw ei</w>
as ts</w>
▁sp ea
perc e▁nt</w>
mak er</w>
C l
▁str ess</w>
▁offic ially</w>
▁emerg ing</w>
▁announ ce</w>
▁1 0,000</w>
on er</w>
i▁ sh
in te▁r
Comm ittee</w>
▁w ages</w>
▁K OS
stit utes</w>
s onal</w>
ic▁ y</w>
armac eu
M▁ ay</w>
▁shar p</w>
▁mon it
▁cons ulting</w>
si x</w>
resp on▁
ac h▁ed</w>
▁ch e
▁ag ed</w>
▁Th ree</w>
in▁ ue</w>
T r▁
▁sp irit</w>
▁confir mation</w>
▁car eful</w>
▁attrac ted</w>
▁att ack</w>
▁M ongol
un j
ell o</w>
av el</w>
at ri
as ses</w>
activ ▁
Y ang</w>
Je ju</w>
; ▁
▁N ews</w>
ul f
lis t</w>
at e▁ly</w>
art ups</w>
ar eness</w>
S outh</w>
▁pas sing</w>
▁expend iture</w>
▁b ▁y</w>
ra▁ p
hous i▁ng</w>
W or▁ld</w>
▁sl ightly</w>
▁lic ense</w>
ex per▁
c ulture</w>
In t
▁prem ium</w>
▁cos metics</w>
▁Econom y</w>
y▁ o</w>
is▁ ts</w>
a▁ tio▁ns</w>
Sam su▁ng</w>
▁val ues</w>
▁r ule</w>
▁perform ing</w>
techn olo▁gy</w>
c anc
atten d▁ed</w>
Jap▁ an</w>
Gyeong sang
▁politi cs</w>
▁l ov
▁don ation</w>
▁M in
▁B ar
▁19 7
oc ation</w>
me▁ et</w>
▁p ort</w>
z en</w>
st a▁r
e▁ ld</w>
er▁ gy</w>
clus ion</w>
P▁ op</w>
C ou▁rt</w>
▁s eek</w>
▁organiz e</w>
st ore</w>
our self</w>
op ▁e</w>
n atur
▁sit u
▁real ize</w>
▁re b
▁Sun day</w>
▁S e</w>
th i▁ng</w>
S pec
F A</w>
shi▁ p</w>
p un
m er
et te</w>
ent ally</w>
e ti▁
an aly
ab led</w>
▁t yphoon</w>
s cor
reg ul▁ar</w>
m▁ et</w>
ij ing</w>
expres s▁ed</w>
bo▁ th</w>
ag g
▁contrac ts</w>
▁c ooking</w>
u▁ ed</w>
h um
e b▁
diff▁ ic▁
▁m aster</w>
▁f oot</w>
▁comp ly</w>
▁am id</w>
▁ab s
▁Ko▁ rea</w>
i▁ re</w>
im b
g i▁ve</w>
chil dr▁en</w>
▁re ward</w>
▁im ported</w>
▁In d
st▁ ud
pl a▁n
ind▁ us
ic▁ le</w>
ati v▁e</w>
a f▁f
1▁ 0</w>
▁dis hes</w>
▁ag ing</w>
▁C ong
m▁ ark
l ove</w>
h w▁an</w>
e▁c ted</w>
bas ed</w>
▁perf ect</w>
▁gr ant</w>
▁dem anded</w>
▁b ed</w>
▁En ter
▁Ar ts</w>
es s▁ed</w>
▁natur ally</w>
w▁h ile</w>
us h
r ban</w>
pre▁ ss</w>
ordin ate</w>
in▁ g
e ducation</w>
e b</w>
H ong</w>
A s▁
. 0
▁ac commod
perform ance</w>
os ▁e</w>
cr aft</w>
air ▁s</w>
▁predic t</w>
▁h owever</w>
▁d rive</w>
▁allow ances</w>
▁ab▁ out</w>
▁D ynasty</w>
w▁h y</w>
ec onomy</w>
an t▁s</w>
▁t ea</w>
▁rem ov
▁inconven ience</w>
▁fig ures</w>
pr▁iv ate</w>
on ce</w>
ea▁ d</w>
ch ai▁r
F ac
▁wea k
▁hel ped</w>
▁complain t</w>
pl a▁ns</w>
c a▁r
▁strength ening</w>
▁A ut
on l▁y</w>
iv i▁ng</w>
al ize</w>
N a▁
▁200 8</w>
ti ous</w>
prov ince</w>
m att
ed om</w>
c▁ rea
an▁ s
▁th ank</w>
▁exec ution</w>
▁T eam</w>
x es</w>
um ed</w>
qu esti
o k▁
▁oper ators</w>
▁o bl
▁Sh im</w>
th e▁rn</w>
t om
res ear▁ch</w>
pr▁ om
pr o▁m
o b▁
h e
ch e▁
▁main tained</w>
▁c l▁
▁Y eon
▁Braz il</w>
si on
pr i▁ce</w>
l ov
ea l▁ed</w>
d i▁n
clud e</w>
Res ear▁ch</w>
Aff ai▁rs</w>
▁bloc k</w>
▁Olymp ics</w>
pr ice</w>
op ol
an ak</w>
3▁ rd</w>
▁w asn</w>
▁lec tures</w>
▁grow n</w>
▁di verse</w>
▁achiev ed</w>
▁B aek</w>
s un▁g</w>
o▁ ur
od ies</w>
S un</w>
▁low est</w>
▁R el
▁D ru
wor d</w>
uc tion</w>
ro▁ u
oc▁ r
g▁ ood</w>
en▁ ds</w>
eff ec
an der</w>
D e▁
▁h ospitals</w>
▁Ar ti
w age</w>
ac coun
Pres▁ ident</w>
▁recogn ition</w>
▁phenomen on</w>
▁h urt</w>
▁fin ance</w>
▁J oo</w>
▁: :</w>
y ed</w>
p ot
fo▁r mer</w>
al ent</w>
&▁a p▁os;s</w>
▁sp reading</w>
▁confl icts</w>
i e▁n
e ys</w>
d▁ ec
av ing</w>
Chin e▁se</w>
6 5</w>
▁coll abor
ti le</w>
g y
ed y</w>
c ultu▁re</w>
ari ffs</w>
▁auth or</w>
v e▁ry</w>
d el▁
▁cl in
▁be er</w>
▁ba▁ sed</w>
▁an x
unic ations</w>
on able</w>
▁parliam entary</w>
li o▁n</w>
it es</w>
g u▁
d id</w>
comm un
ch a▁r
activ iti▁es</w>
▁sec tors</w>
▁rem arks</w>
▁institu te</w>
▁g un</w>
▁K o</w>
tor ▁s</w>
re▁ ad</w>
or▁ ts</w>
op en</w>
ner ship</w>
invest me▁nt</w>
ho▁ ur</w>
▁schol ar
▁re fer
▁canc eled</w>
▁Jeoll a</w>
u▁ ps</w>
nam ese</w>
m ob
l ong
ig ▁n</w>
as ted</w>
ach ing</w>
▁pic k</w>
▁offer ed</w>
▁Han wha</w>
▁A ll
w elfa▁re</w>
proc e▁ss</w>
m u▁ch</w>
l oo
il at
det erm
P▁ rov
P yeong
N▁ ational</w>
▁st atistics</w>
▁Chungch eong</w>
f air</w>
L oc▁al</w>
201 7</w>
▁stud ies</w>
▁for um</w>
▁emerg ed</w>
▁F ilm</w>
sum er</w>
sel ▁
s ee
o▁u gh</w>
in o</w>
c▁ ase</w>
b on</w>
at e▁
201 6</w>
1▁ 00</w>
▁v i▁sit</w>
▁claim s</w>
▁app ears</w>
u▁ sed</w>
tiv ▁
j o</w>
com p▁l
bir th</w>
at in▁g</w>
E conom
▁conven ient</w>
tr ea
s ized</w>
l▁ i
i eld</w>
enti ment</w>
e t▁ed</w>
am ▁es</w>
H igh</w>
2 9</w>
rec e▁
o▁r th</w>
oc ked</w>
la▁ ted</w>
h▁ it</w>
comp reh
▁jud icial</w>
▁W estern</w>
▁Tem ple</w>
z z
s .</w>
▁pro hib
▁c overed</w>
▁c ool</w>
▁bu ying</w>
▁C ivil</w>
z ▁ed</w>
ugg ish</w>
f av
P ri▁
▁teen agers</w>
▁dri vers</w>
▁V en
▁A si
per ty</w>
ip e</w>
a ight</w>
t▁h ▁e</w>
re▁c e
manag ement</w>
▁supervis ion</w>
▁sk y</w>
▁p eti
▁kn ew</w>
▁identi fied</w>
▁dis posal</w>
▁H ae</w>
▁Bo ard</w>
ow e▁r</w>
matt e▁rs</w>
foll owing</w>
b ack
ap o</w>
Je oll
J u▁ng</w>
F ound
▁hy drogen</w>
▁O kay</w>
t▁ ers</w>
ed eral</w>
c a▁l
b▁ ed</w>
▁cont aining</w>
ust ain
sign ific
port ers</w>
exc e▁
▁differ ences</w>
▁b ills</w>
▁G or
v ill
s ay</w>
el ings</w>
ad es</w>
S T</w>
▁wor ry</w>
▁ep is
▁car ds</w>
▁S NS</w>
promo▁ te</w>
on ial</w>
lik ▁e</w>
g ence</w>
f it</w>
▁i gn
▁he▁ ad</w>
▁g ain</w>
re ds</w>
o▁ ve</w>
ol▁ ds</w>
n etw
ig n▁ed</w>
i ers</w>
3 5</w>
▁ref ers</w>
▁go als</w>
▁cro ss
▁cooper ative</w>
▁amend ment</w>
icul um</w>
ib▁ le</w>
a it</w>
▁pret ty</w>
▁mus ical</w>
▁benef it</w>
rel ev
or r▁y</w>
er ea
adminis tr▁
T A</w>
▁unf air</w>
▁orig inally</w>
▁b ▁
nam ent</w>
g▁ ue</w>
ang ing</w>
▁d ea
uc ks</w>
l i▁ng</w>
ic ed</w>
e▁l op
▁pat h</w>
▁o ▁
▁con tributed</w>
▁J un</w>
p eopl▁e</w>
3 2</w>
▁H ea
▁G iven</w>
for ce</w>
av o
▁ex posed</w>
▁crea tive</w>
p h▁
▁fr anch
▁a id</w>
▁Th ailand</w>
under▁ st
mi▁ ss
iz ▁ation</w>
in come</w>
f ar</w>
▁pay ments</w>
▁al cohol</w>
▁Pa ju</w>
z es</w>
y▁ u</w>
wor king</w>
ro▁ le</w>
jo▁ bs</w>
diff▁ic▁ ult</w>
com b
▁respon dents</w>
▁m outh</w>
▁l ux
▁alleg ed</w>
tr aini▁ng</w>
stud ▁
pol ice</w>
l▁ ing</w>
id ity</w>
▁m ill
▁H o</w>
▁G lobal</w>
incl▁ud i▁ng</w>
gr▁ am</w>
bass ador</w>
at▁ ing</w>
9 0</w>
▁sur face</w>
▁disp atched</w>
▁P ohang</w>
▁P as
▁Christi an</w>
▁un cer
▁commer ci
r ▁e</w>
o▁r m</w>
og r
m is▁
i ums</w>
d▁ es
▁inev itable</w>
▁af ter
▁D oes</w>
sti t▁
op▁ en</w>
l abor</w>
j e▁c
b▁ efo▁re</w>
b y
activ ities</w>
S m
▁t ests</w>
▁far ms</w>
▁dr ugs</w>
▁dec laration</w>
▁Agric ultural</w>
▁3 1st</w>
▁2 5
w it▁h
rec ent▁ly</w>
in e
ess ors</w>
bo▁ dy</w>
ar eas</w>
H ee</w>
▁w ake</w>
▁th in▁k</w>
▁inv ited</w>
▁guid elines</w>
▁em b
▁G eun</w>
v e▁n
ti▁ cle</w>
c▁ ar</w>
administr ati▁on</w>
Ch▁in ese</w>
▁s igning</w>
▁explan ation</w>
▁effici ently</w>
hea l▁th</w>
at u▁re</w>
▁obl ig
▁innov ative</w>
▁g rew</w>
▁fe els</w>
▁ad ults</w>
▁T okyo</w>
▁Christ mas</w>
p aid</w>
f▁ r
et▁ y</w>
c amp
V ice</w>
D irec
▁str ike</w>
▁re organiz
g ive</w>
4 ▁th</w>
▁won der</w>
▁fac tor</w>
s▁ um
m at▁ch</w>
▁sw eet</w>
▁m e▁
▁clean ing</w>
p▁ol icy</w>
mon ey</w>
l ead
i▁n g
i▁ d</w>
ind ivid
ho▁ on</w>
ge▁n eral</w>
f ail
b e▁rs</w>
b enef
az a</w>
ay in▁g</w>
am ework</w>
▁sl ow</w>
▁p ▁
▁govern ed</w>
▁dis tricts</w>
▁aw arded</w>
y in▁g</w>
v i▁ng</w>
ther wise</w>
t o
ill eg
ath e▁r</w>
ar r▁
al ax
S ing
▁inv ested</w>
▁aw areness</w>
▁ath letes</w>
▁E very</w>
▁&ap▁os ;</w>
won do</w>
se▁ ok</w>
g lob▁al</w>
e▁ al
bec o▁me</w>
aug ur
▁requ ests</w>
▁e sc
▁cor ruption</w>
tu p</w>
su gg
m e▁n
▁n early</w>
▁f arm</w>
▁dro pped</w>
▁M e
ym ore</w>
tim es</w>
stand i▁ng</w>
i e▁d</w>
h on
for ▁e</w>
▁w il▁l</w>
▁smo oth</w>
▁det ected</w>
▁beg un</w>
▁adv ice</w>
▁H ere</w>
▁Gang neung</w>
tw▁ o</w>
st y▁le</w>
me▁ d
l▁ s</w>
jus ▁t</w>
crim ination</w>
b e▁r</w>
▁su icide</w>
▁f ifth</w>
▁compl exes</w>
the▁ m</w>
str o▁ng</w>
st a▁
l ab▁or</w>
i▁t tee</w>
i▁ r</w>
ec ▁h
▁app eal</w>
ti se</w>
ou▁r s</w>
l igh
k il
is h▁ed</w>
increa s▁ed</w>
i os
g▁ er</w>
bor n</w>
▁w▁ ith</w>
▁us age</w>
▁eas ier</w>
▁cont ain
▁I CT</w>
▁Con struction</w>
play ▁ed</w>
p m</w>
▁vo ices</w>
▁tro ops</w>
▁f iscal</w>
▁ch ose</w>
▁canc ell
▁adverti sing</w>
▁H ak</w>
rec ogn
ou▁ ng</w>
it▁ e</w>
d▁ idn</w>
G r
▁w o▁uld</w>
▁resear chers</w>
▁pre gn
▁m ▁
▁comb ined</w>
▁P yongyang</w>
t a</w>
s▁ ti
qu e</w>
b al
at▁ ive</w>
D ef
20▁1 8</w>
▁sem ester</w>
▁j ustice</w>
re▁ ase</w>
app▁ ly</w>
▁ver sion</w>
▁smartph ones</w>
▁he▁ ld</w>
▁fl ower</w>
▁evalu ated</w>
▁Viet namese</w>
▁R ights</w>
pro secu
ok i▁ng</w>
j oi▁nt</w>
ann i▁ng</w>
. 5
▁im ages</w>
▁br ands</w>
▁b and</w>
▁N ext</w>
▁In depend
▁G o</w>
urs day</w>
ta▁ e</w>
prov in▁ce</w>
hy e</w>
d ea▁
a▁c y</w>
Sup po▁rt</w>
O f▁f
▁big ger</w>
▁ass et</w>
▁ac ting</w>
t▁ io▁n</w>
succ ess
sub sid
con stru▁c
▁t ariffs</w>
▁p age</w>
▁det ail</w>
▁chall enge</w>
▁b an
o d▁
ist ant</w>
h me▁nt</w>
f am▁
ee d▁ed</w>
atiz ation</w>
▁public ly</w>
▁or▁ der</w>
▁20 20</w>
ou s▁
n ecessary</w>
c and
ashing ton</w>
▁spec ified</w>
▁s ear
▁r out
▁r iver</w>
▁dec or
▁Hw as
▁10 0,000</w>
liv i▁ng</w>
al i
A ir
▁purch asing</w>
▁b onds</w>
st u▁
om b</w>
no▁ w</w>
ne▁ ar</w>
f▁ ri
c an
M e▁
E l
3 00</w>
▁vic tory</w>
▁sh oes</w>
ro l</w>
i ously</w>
eng th</w>
K i</w>
▁m ass</w>
▁all owing</w>
▁S y
zbe k
v ac
pres i▁d
j eon</w>
h eal
g▁ u
dom est▁ic</w>
▁d ogs</w>
▁ac ts</w>
▁N or
ig ar
en ▁s</w>
▁ref er</w>
▁listen ing</w>
▁competi tive</w>
relev a▁nt</w>
ong no</w>
▁sm all
▁Pol icy</w>
▁J o</w>
▁ ic</w>
is ition</w>
e ffici
b▁ as
a ised</w>
Sa▁m sung</w>
I ▁t</w>
I T</w>
I S</w>
C ooper
▁wor se</w>
▁star ts</w>
▁sim ply</w>
▁pus hing</w>
▁H ar
und reds</w>
t alk</w>
il s</w>
g▁ row
fo▁r m
Y ong
▁monit oring</w>
▁man ip
▁exam ine</w>
▁apprec iate</w>
▁Pen sion</w>
re f▁
pr▁ il</w>
m▁ en</w>
k e▁d</w>
i ary</w>
&▁apos; t</w>
▁b ▁e</w>
▁YouT ube</w>
▁C ol
thr▁ ough</w>
Sh in</w>
Gwang ▁ju</w>
▁ven ture</w>
▁relig ious</w>
▁in form</w>
▁d ivid
▁ch ar
▁C ooper
m ark</w>
e e▁d</w>
ch ang</w>
R S</w>
H o▁ng</w>
▁t opic</w>
▁requir ements</w>
▁no tic
▁e ase</w>
▁S MEs</w>
▁J ang
w er</w>
or ▁ed</w>
op e▁r
f ee▁
ev▁ el
cer emo▁ny</w>
as▁ te</w>
ap prov
M a▁r
Gye on▁g
▁sup ports</w>
▁s ad</w>
p▁ eo▁ple</w>
gr am</w>
em▁ ber</w>
cl aim
at h</w>
a th▁er</w>
im ming</w>
h and
enter pris
▁sec urities</w>
▁s un</w>
▁Inv estment</w>
z ▁
spec ial
ch eo▁n</w>
ar ian</w>
▁th▁ ere</w>
▁m om</w>
▁earthqu ake</w>
▁Ch useok</w>
so▁ on</w>
si▁ ble</w>
ough ly</w>
me th
S ou
▁shar ply</w>
▁real ized</w>
▁con tribution</w>
si l</w>
poli▁ tical</w>
i▁ st▁
ic i▁es</w>
enti a</w>
at▁ or</w>
ac tive</w>
N ational</w>
▁initi al</w>
▁car efully</w>
▁3 0s</w>
su▁ pp
mil▁ itary</w>
it e▁d</w>
ho▁ pe</w>
d eg
a▁ ss
T▁ r
▁cons ists</w>
▁bloc ked</w>
▁L aw</w>
▁C itizens</w>
uc le▁
og rap
o il</w>
app ed</w>
▁wh enever</w>
▁fu el</w>
▁clos ely</w>
um i</w>
t ings</w>
re▁ qu
o▁ ffice</w>
▁un less</w>
▁su ffer</w>
▁law yer</w>
▁grea ter</w>
▁exclus ive</w>
▁decl ared</w>
v▁ al</w>
f a▁ns</w>
employ me▁nt</w>
ci t▁
W on</w>
▁emp ty</w>
▁&a▁ pos;</w>
wor▁ ld</w>
u to</w>
e▁ me▁nt</w>
diffic u▁lt</w>
al▁ ity</w>
▁gu ess</w>
▁ab ou▁t</w>
y on▁g</w>
ut▁ es</w>
ou sing</w>
i▁ zed</w>
f re
cr imin
c ol▁
▁sud den</w>
▁pen alty</w>
▁p ilot</w>
▁d ong</w>
▁c af
▁at titude</w>
▁ar my</w>
▁D ivision</w>
▁5 2</w>
te▁ nd</w>
ten ing</w>
on ▁ed</w>
m il
ens us</w>
▁wh om</w>
▁f ear</w>
u▁r n</w>
p▁ ol▁
or d▁
ol s</w>
iz ▁e</w>
it ch</w>
ir ▁ed</w>
ic ▁s</w>
e on▁g</w>
cl ass</w>
a ud▁
I C
▁lea ves</w>
▁concentr ated</w>
▁Ta x</w>
w e▁nt</w>
st age</w>
▁oper ations</w>
▁offer ing</w>
▁l ease</w>
▁An y</w>
w ood</w>
w a▁ys</w>
t▁ ions</w>
ll ed</w>
ho▁ ld</w>
enc ing</w>
▁wind ow</w>
▁pr ime</w>
▁eng aged</w>
▁e ither</w>
▁C ap
o▁ ffic
ic a▁l</w>
bus i▁ness</w>
M W</w>
▁g ained</w>
▁diplom atic</w>
▁arti st</w>
▁R oad</w>
▁Ab ove</w>
v ar▁
ult an
se▁r vice</w>
reg is
po▁ se</w>
f ind</w>
b us</w>
▁t ons</w>
▁su it</w>
▁chall eng
▁ab and
▁M i</w>
▁Gyeong nam</w>
▁Ex cept</w>
us ▁t</w>
s a▁n</w>
p o
n et</w>
es ▁e</w>
Un ive▁r
E un</w>
A si▁an</w>
▁multi ple</w>
ar e▁a</w>
am▁p ;</w>
al ist</w>
N ov
Kor ea▁n</w>
▁prom ised</w>
▁hon or
▁al loc
spec ▁
o thing</w>
med ia</w>
il d
c e▁d</w>
b oth</w>
az on</w>
P I</w>
▁vill ages</w>
▁spen ding</w>
▁lea ds</w>
▁com position</w>
un ior</w>
serv ic▁es</w>
ob by</w>
es▁ ts</w>
ef s</w>
bl ed</w>
a▁n n
C up</w>
▁v ess
▁pack age</w>
▁m and
▁exper im
▁conf idence</w>
▁communic ate</w>
to▁ o</w>
osp ital
a▁ tion▁s</w>
Gen er▁al</w>
▁trav eling</w>
▁t esti
▁suspic ions</w>
▁f ails</w>
prof essi
e▁r t</w>
ci a▁l</w>
b ad</w>
B l▁
▁scor ed</w>
▁inc en
▁d ed
▁br ain</w>
▁Agric ulture</w>
j ae</w>
ha▁ v▁e</w>
f ul▁
all en</w>
J une</w>
Com p
▁recogn ize</w>
▁intro ducing</w>
we▁ l
s ing▁
le▁ ad
in et</w>
ici ary</w>
appoin t▁ed</w>
A I</w>
▁re fr
▁l i▁
▁c o▁m
p oint</w>
in ati▁on</w>
ch▁ ang
▁expres sion</w>
▁Hu awei</w>
u ting</w>
ir▁ ae</w>
i o▁n
he▁ l▁d</w>
emb e▁r</w>
▁m eals</w>
▁Mus ic</w>
op positi▁on</w>
m▁ ed
ci en▁ce</w>
c rea▁
b▁ ack</w>
K▁ or▁
C ente▁r</w>
▁im ag
▁d ry</w>
▁bor der</w>
▁S ang
▁N ex
▁G reen</w>
t o▁ry</w>
si▁ k</w>
pa▁ st</w>
mat er
j obs</w>
isten ce</w>
▁exten sion</w>
▁d rew</w>
sa▁ ng</w>
estiv als</w>
co▁ st</w>
O h</w>
J ang</w>
D iv
▁mist ake</w>
▁custom ized</w>
▁charg ed</w>
▁Wh o</w>
▁Comp any</w>
▁ d</w>
re▁ me</w>
ic e▁s</w>
e very
d on</w>
ay i▁ng</w>
▁sh ow
▁respon ded</w>
▁prov inces</w>
▁c ode</w>
Prov▁ ince</w>
▁manag ing</w>
▁fi ref
▁Malay sia</w>
tak i▁ng</w>
s ince</w>
n eigh
ic it</w>
con fl
agre eme▁nt</w>
aff ai▁rs</w>
Prov i▁nce</w>
M y</w>
▁tal ent</w>
▁replac ed</w>
▁r aw</w>
▁los ses</w>
▁comb ination</w>
▁Pro t
s l▁
ot▁ ed</w>
me et</w>
if ying</w>
form er</w>
con d</w>
ay be</w>
▁st abil
▁sh ooting</w>
▁en thusi
▁d ark</w>
▁cul tiv
▁Sec urities</w>
▁O per
▁ ted</w>
re▁ ss</w>
pos▁ ;
ic op
gu id
f ans</w>
d a▁ta</w>
S un
▁y ourself</w>
▁t elecomm
w ant</w>
r at
os en</w>
ol og▁y</w>
m om
g e▁t
aut om
▁fos ter</w>
▁e cos
▁ann ually</w>
▁3 2</w>
s▁ ub
m inal</w>
l▁ evel</w>
is s</w>
ec on▁
d▁ em
▁y ellow</w>
▁sp ons
▁sl uggish</w>
▁m el
▁k imchi</w>
▁extr eme</w>
▁M embers</w>
▁L ike</w>
d es▁
curr e▁nt</w>
M us
▁st eel</w>
ul ati▁on</w>
m m</w>
de▁ f
b ors</w>
N am</w>
J eong</w>
&▁a pos▁;s</w>
▁un usual</w>
▁un like</w>
▁T rea
t▁ e▁d</w>
sh ▁e</w>
s ett
particip at▁ed</w>
int▁ ern
e▁ am</w>
er ship</w>
▁th▁ e▁re</w>
▁b re
▁Tur key</w>
▁Seong nam</w>
w a▁ge</w>
res taur
p .m.</w>
m et</w>
j a</w>
d ir▁ec
Intern ation▁al</w>
▁bor row
▁autom atically</w>
▁ac tions</w>
▁Par ticip
▁Gr and</w>
▁Be ijing</w>
we▁ ek</w>
st a▁te</w>
sh ow▁ed</w>
rec ru
particip a▁te</w>
it ations</w>
g u▁n</w>
f oun
e▁r ing</w>
evelop me▁nt</w>
bo x</w>
Un it▁ed</w>
Or ganiz
▁h iring</w>
▁ ati▁on</w>
u▁n der</w>
s▁h all</w>
co▁n t
b▁ ig</w>
T ra▁
▁los ing</w>
▁g one</w>
▁earn est</w>
▁dep ar
s▁h ip</w>
s▁ i</w>
s▁ ch
pre vi
m▁ in
l ic
ell a</w>
al▁ ls</w>
▁resol ved</w>
▁fre ely</w>
v▁ ey</w>
v e▁r
ti on▁al</w>
plo y▁
herein a▁ft▁er</w>
fac ilities</w>
a▁n ts</w>
ass ment</w>
J▁ ap
2 6
▁sec uring</w>
▁Y un</w>
o▁ ver</w>
cu▁r rent</w>
com fortable</w>
b ooks</w>
ap y</w>
air ed</w>
2 8
▁wid ely</w>
▁tal ked</w>
▁c ross</w>
▁c itizen</w>
▁F ree</w>
ver al</w>
sus pec
star t▁ed</w>
rel ation
par ▁ed</w>
g ov▁ern
fi e▁ld</w>
com es</w>
C▁ ity</w>
▁re place</w>
▁or dinance</w>
▁cr ack
▁bo at</w>
▁M ad
▁ at▁ion</w>
tor ies</w>
ti s</w>
c▁h eon</w>
a ff▁
▁wor st</w>
▁s u▁
▁mut ual</w>
▁V arious</w>
▁H on
s▁ erv
st▁ it
r ai▁
mor ning</w>
elec ti▁on</w>
▁p ort
▁no ise</w>
▁fam iliar</w>
▁disc overed</w>
wit ter</w>
wh eth▁er</w>
tur ▁es</w>
en c▁y</w>
ea c
b▁ le</w>
▁v acc
▁sing ers</w>
▁mis s</w>
▁continu ous</w>
u▁ es</w>
te▁ e</w>
rou g▁h</w>
rel ated</w>
pl ied</w>
ion a▁l</w>
h am</w>
fi▁ l
activ e▁ly</w>
T X</w>
Pr▁ ov
▁passeng er</w>
▁inv oice</w>
th▁ a▁t</w>
lik e▁ly</w>
is ti▁ng</w>
in▁ ess</w>
il▁ ls</w>
establis h▁ed</w>
ain t</w>
▁s oci
▁ill eg
▁g r▁
▁W o
▁C ri
ul ted</w>
ri f
ri ers</w>
r ights</w>
o▁ ok</w>
f ather</w>
ea▁ s</w>
d ang</w>
b udget</w>
ad ministration</w>
▁y e▁ar</w>
▁h ike</w>
▁f undam
▁An san</w>
▁200 7</w>
s▁ ix</w>
res ol
o▁ ver
o king</w>
m at▁
ci ent</w>
al▁ ue</w>
O per
M on
. .</w>
▁m unicipal</w>
▁invest ments</w>
▁fa ith</w>
▁e th
doc um
comp et▁
am ong</w>
ac tion</w>
S C</w>
C o</w>
▁situ ations</w>
▁r ide</w>
▁dem ands</w>
▁H ello</w>
u ff
re▁ la▁ted</w>
qu a▁r
os u</w>
oc c▁
i▁l ity</w>
int e▁n
h ot</w>
1 7
▁s eal</w>
▁rem ove</w>
▁fi erce</w>
▁cl ou
y one</w>
t▁ ic</w>
res p▁
mak ▁e</w>
im pro▁ve</w>
gener ati▁on</w>
dr aw</w>
20▁ 0
▁s pl
▁s entiment</w>
▁re jected</w>
r▁eal ly</w>
g n</w>
d ou
at o▁ry</w>
alax y</w>
▁th ough
▁sh ut
▁exc av
▁e g
▁b attle</w>
▁ad just</w>
▁M r
▁M ean
▁L ooking</w>
u ted</w>
r a</w>
m▁ ov
iti v
h▁ igh
f e▁r
f a▁ce</w>
e the▁r</w>
▁lea gue</w>
▁ha v▁e</w>
▁W ashington</w>
re ti
pos ite</w>
o▁ un▁
o tions</w>
kn owl
in▁ d</w>
il i▁es</w>
Pa▁r ty</w>
Da e▁
▁wh e▁n</w>
▁s cienti
▁r are</w>
▁curr iculum</w>
▁c red
▁am oun
▁6 5</w>
ter ▁ed</w>
pa▁ id</w>
p i▁c
op eni▁ng</w>
ea▁ sed</w>
busin ess▁es</w>
ar a</w>
2 ,
▁har d
▁exemp tion</w>
▁Cheong ju</w>
tr eat
r u▁n
pr▁ oc
produc ti▁on</w>
esti v▁al</w>
ed ing</w>
c iv▁il</w>
bass y</w>
1▁ 9
&a▁pos▁ ;</w>
▁M an
▁H ol
st ablis
or▁ ry</w>
num ber</w>
j oy</w>
e▁ ll</w>
ex ▁t</w>
ent um</w>
ach iev
B us
▁fac ing</w>
▁I ts</w>
sh ould</w>
pp ing</w>
iti on▁al</w>
it ual</w>
is si▁on</w>
ed▁ ge</w>
E X</w>
▁usu al</w>
▁st ability</w>
▁j uven
tur n</w>
st op</w>
os un</w>
c iv
▁tow ards</w>
▁sing ing</w>
▁sh ops</w>
▁negoti ation</w>
▁investig ated</w>
▁dis advant
st a▁ge</w>
s ome
id▁ eo</w>
e▁x p▁
OS CO</w>
▁ow ned</w>
▁f aster</w>
▁down town</w>
▁dismis sed</w>
▁bu yers</w>
y ear▁s</w>
se o▁k</w>
ific ations</w>
▁u plo
▁p op</w>
▁collap se</w>
▁behav ior</w>
▁b all
y a</w>
ur▁ r
par ag
min im
igh ters</w>
gover n▁or</w>
a th▁
J uly</w>
▁win s</w>
▁tou ch</w>
▁plen ary</w>
▁intern et</w>
m▁ er</w>
j o▁ng</w>
et▁ ing</w>
c at
a e▁
G▁yeong gi</w>
▁v oting</w>
▁v oc
▁str aight</w>
▁power ful</w>
▁merch ants</w>
▁c atch</w>
▁c afe</w>
▁T imes</w>
ou g▁ht</w>
nu▁ clear</w>
l os
if ts</w>
diffic ul
S AT</w>
&▁ap▁os ;</w>
▁trans par
▁s ex
▁pur poses</w>
▁l ess
▁f ing
▁classi fied</w>
▁Str eet</w>
▁S ystem</w>
w eb
reg ion</w>
oo thly</w>
m▁ en▁t</w>
m id</w>
ad ver
J u▁ne</w>
C o▁un
▁sem in
▁bir thday</w>
▁ass aul
▁P ower</w>
▁B el
t▁ic le</w>
s▁ ta▁
se▁ as</w>
re▁ ss
pr▁ ob
o▁r d▁ing</w>
em p▁l
arb age</w>
▁gar den</w>
▁Z one</w>
▁For est</w>
uch eon</w>
q▁ u▁
pr▁ oc▁
oo▁ ls</w>
m ess
im medi
ic ate</w>
h it</w>
es tr
b o▁r
a▁r ed</w>
N .</w>
M Z</w>
Coun cil</w>
▁v eter
▁stud ied</w>
▁sp aces</w>
▁hum an
▁Inst ead</w>
tim▁ es</w>
sh▁ all</w>
g l▁
essi ons</w>
d a▁
cas ▁es</w>
al l▁ed</w>
▁tur ning</w>
▁sec ret</w>
▁o therwise</w>
▁br ight</w>
▁ag ent</w>
▁Mean while</w>
▁Indus tries</w>
▁A s
▁&▁ quot;</w>
you▁ r</w>
t▁h ere</w>
t omorrow</w>
g ers</w>
el er
coun tries</w>
20 th</w>
▁sou p</w>
▁def in
▁1 50</w>
prov id
e▁ conom
enter ▁ed</w>
ead ily</w>
S▁ outh</w>
J us
▁sharehol ders</w>
▁rel ation</w>
▁reas onable</w>
▁per man
▁f ill</w>
▁dis crimination</w>
▁Kor e▁a</w>
▁G re
▁Chang won</w>
r▁ em
p▁ol ice</w>
or se</w>
ish es</w>
h a▁rd</w>
el em
3▁ 0</w>
▁h arm
▁continu ing</w>
▁Shin han</w>
▁Br idge</w>
e▁ ri
V s</w>
U▁n ited</w>
P resi▁d
J in
▁w edding</w>
▁retur ning</w>
▁mil k</w>
▁fac ts</w>
▁det eri
▁J ung
un g▁
u esday</w>
t ow
k▁ ey</w>
i▁n gs</w>
b ank</w>
▁s ources</w>
▁h eight</w>
▁exc eeded</w>
t▁ h▁
tic ultural</w>
st a▁rt</w>
sib ili▁ty</w>
r▁ ate</w>
p▁ ri
por ti▁ng</w>
iti cal</w>
hw a▁n</w>
ech an
e u▁n</w>
co▁mp any</w>
ch il▁
bud g▁et</w>
En ter
1 0th</w>
,0 0▁0</w>
▁pr o▁
▁hel ping</w>
▁K ia</w>
tric ▁t</w>
me an▁s</w>
form ed</w>
charac ter
aw n</w>
au ce</w>
ar ound</w>
administr ati▁ve</w>
&a▁po▁s ;</w>
▁wor s
▁l e▁
▁Nav er</w>
▁3 4</w>
sy▁st em</w>
om▁ y</w>
ish eries</w>
fil m</w>
emerg en▁cy</w>
c m</w>
ber g</w>
ation a▁l</w>
D A
▁tim ▁e</w>
▁G o
p▁ o▁s
prev e▁nt</w>
inv olv
f▁am ily</w>
fin▁ al</w>
er able</w>
coun t▁ry</w>
ar row</w>
abil i▁ty</w>
E uro
▁fru it</w>
▁ap olog
▁Ch a</w>
ti▁ n▁g</w>
pr ais
off▁ icial</w>
f er▁
en h
educ ▁ation</w>
ed ged</w>
con▁ t
b▁e ing</w>
bu il▁
bec om
ay ▁ed</w>
&a▁pos▁ ;▁s</w>
▁w i▁th</w>
▁a spec
▁A be</w>
tr ie▁s</w>
syst e▁m</w>
prosec ▁u
ec ▁t</w>
ea▁ m</w>
▁fri endly</w>
▁flex ible</w>
▁bic ycle</w>
i▁ ons</w>
indus tri▁al</w>
iber ati▁on</w>
e▁c tion</w>
▁n or
▁hand ling</w>
▁disapp eared</w>
▁chann el</w>
▁Yong in</w>
▁Stud ents</w>
v en▁
med▁ ia</w>
h oo▁n</w>
g yp
d er▁
arg o</w>
▁s p▁
▁pr im
▁pat ent</w>
▁happ iness</w>
▁deg ree</w>
▁day care</w>
▁dang erous</w>
rec or
p i
is ional</w>
dr a▁
de p▁
co▁m p▁
cl as
c ost</w>
c e▁s</w>
A N</w>
▁ma p</w>
▁expl os
▁cons ent</w>
▁coll ecting</w>
th▁ ing</w>
s eok</w>
rel▁ ated</w>
he▁ al
con feren▁ce</w>
ath y</w>
an im
▁in str
▁H ang
u p▁
o thers</w>
ener y</w>
dis tribu
al ogue</w>
▁pre fer</w>
▁pl ays</w>
▁inj ury</w>
▁F amily</w>
y▁ ears</w>
tic▁ al</w>
s▁ ystem</w>
loc at▁ed</w>
is▁ m</w>
fac il▁
con si▁
cer tific
▁u k</w>
▁sp icy</w>
▁adop ted</w>
s▁ ur
qu ality</w>
k er▁s</w>
inclu▁ ding</w>
eat edly</w>
c▁om p
am ou▁nt</w>
Sch o▁ol</w>
S e▁r
▁un ve
▁pre viously</w>
▁invol ving</w>
▁eng ine</w>
▁dou b
▁Con cer
th erm
tal▁ ks</w>
sc re
ind ic
▁piec es</w>
▁memor ial</w>
▁c up</w>
▁a▁ nd</w>
▁a r▁
▁S om
▁D i
▁ 0
th in▁g</w>
s man</w>
oti c</w>
m ov▁
duc ts</w>
c ard</w>
Y ang
E ▁n
▁so ft</w>
▁k ing</w>
▁W on
▁Arti cles</w>
re▁l ated</w>
r an</w>
pl aces</w>
ir cles</w>
ific ati▁on</w>
f utu▁re</w>
employ ▁ed</w>
dre▁ n</w>
bu y</w>
3 3</w>
▁un ification</w>
▁cl ubs</w>
▁Gang seo</w>
▁D an
ur ement</w>
ul ating</w>
h▁ ye</w>
c▁ er
ad v▁
▁por tion</w>
▁lin ked</w>
▁fav or</w>
▁center ed</w>
▁c ake</w>
▁aff ect</w>
▁W ednesday</w>
yo▁ ur</w>
om b
olo▁ g
h▁ alf</w>
3 7</w>
▁val u
▁num bers</w>
▁issu ance</w>
h ealth</w>
f ind
ech eon</w>
ardi an</w>
an n▁
S ta▁
S h▁
▁in quir
▁fe elings</w>
▁dis h</w>
▁cop y</w>
▁accompan ied</w>
▁M ike</w>
▁4 5</w>
s un</w>
inv es▁
f em
al ists</w>
rea▁ dy</w>
re po▁rt</w>
pro f▁it</w>
o▁r d</w>
ond ary</w>
l ets</w>
c▁h ange</w>
Jap▁ anese</w>
▁satis faction</w>
▁pro pos
▁pain tings</w>
▁identi ty</w>
wi▁ n
te▁ m
rul i▁ng</w>
oy s</w>
ot a</w>
k et
hea▁ d</w>
d aemun</w>
at▁ ion▁s</w>
▁h undreds</w>
▁bl ind</w>
▁Inv estig
o▁w ing</w>
or n</w>
bl oc
Pro moti▁on</w>
▁hand ed</w>
▁foun ded</w>
▁T own</w>
▁K um
▁Ac tress</w>
st e▁
re x
probl em</w>
n ings</w>
mo d▁
k e▁rs</w>
e▁ ls</w>
ener ation</w>
broad cas
B ur
▁exten d</w>
▁B oth</w>
reg ion▁al</w>
ou ido</w>
en▁ ing</w>
en e▁ss</w>
b▁ e▁
▁rel ief</w>
▁le isure</w>
▁g ate</w>
▁belong ing</w>
ye on▁g</w>
p u▁r
l e▁d</w>
in▁ v
e▁s s▁
consid ▁
a▁m p
▁ter min
▁contro versi
▁clim ate</w>
▁c ited</w>
▁F ur
ul ▁ed</w>
s▁tr ong</w>
stud ents</w>
r ise</w>
mon ths</w>
k inderg
b▁ est</w>
▁success fully</w>
▁m all</w>
▁i ▁t</w>
▁Sp ain</w>
Direc t▁or</w>
▁t i▁me</w>
▁r i▁ght</w>
▁d er
▁an ticip
invest▁ ig
gu ar
e▁n g
ea h</w>
candid a▁te</w>
a▁ k
ac▁ c
▁sh ipment</w>
▁p eak</w>
▁land scape</w>
▁f estivals</w>
▁D r
▁C rea
▁3 3</w>
il ding</w>
el ih
c▁h a▁r
b▁ uk</w>
ac tly</w>
▁pos itions</w>
▁netw or
▁legisl ation</w>
▁h ot
▁Ac ademy</w>
mus ic</w>
me e▁
m us▁ic</w>
m illion</w>
l friend</w>
ing ing</w>
g oo▁d</w>
equ ip
art a</w>
arm ing</w>
accor di▁ng</w>
D evel
▁rem oved</w>
▁princi pal</w>
▁j um
▁hum ans</w>
▁h ous
▁doll ar</w>
▁diagnos is</w>
▁S oon</w>
▁R ather</w>
w om▁en</w>
lo▁ ve</w>
i ant</w>
f▁er red</w>
com▁ pl
agre ement</w>
B usin
▁v it
▁reg ulatory</w>
▁rec over</w>
▁n utr
▁gl ass</w>
▁enterpr ise</w>
▁St and
▁Gyeong buk</w>
u▁ nd</w>
t▁ ies</w>
o▁r ts</w>
is io▁n</w>
gre▁ at</w>
dep artme▁nt</w>
S oo</w>
R ev
En viron
▁manag ers</w>
▁inspec t</w>
▁dis charg
▁aud iences</w>
t▁h ree</w>
t▁ om
situ ati▁on</w>
pro jects</w>
pres s
per s▁
lo▁ ok</w>
h aus
er age</w>
ell er</w>
a▁s k</w>
▁viol ations</w>
▁vi ews</w>
▁s it</w>
▁prosec utors</w>
▁id ol</w>
▁c y
▁3 0
ti▁ ci
ro▁u gh</w>
k▁ et</w>
bl ing</w>
a▁in st</w>
H ye</w>
▁th us</w>
▁memor ies</w>
▁ex ▁
▁dis close</w>
▁aut umn</w>
▁Buddh ist</w>
▁B ig</w>
v ic▁e</w>
l▁i k▁
il it▁y</w>
ic▁ an</w>
exp a▁n
▁tr ends</w>
▁M ajor</w>
wo▁r ld</w>
par liam
o▁ l</w>
o ir</w>
m yeon</w>
dis t
coun ter
c ean</w>
b el▁
an▁ n
ac h▁
H eal▁th</w>
▁replac ement</w>
▁rem ained</w>
▁N ong
wh▁ ic▁h</w>
w a▁nt</w>
t▁r ict</w>
s ociety</w>
r i▁s
on▁ es</w>
on▁ ce</w>
l in▁e</w>
i▁ gh</w>
e▁ ir</w>
ew oo</w>
en n
b ro▁
as k▁ed</w>
an c▁ed</w>
D i▁
C C</w>
&a▁po▁s ;▁t</w>
▁th▁ er▁e</w>
▁g arbage</w>
▁employ ed</w>
▁custom s</w>
▁categ ory</w>
▁analy ze</w>
su fficient</w>
sti▁ ll</w>
presid enti▁al</w>
empl o▁y
dep u▁ty</w>
bus▁ in
a▁n s
▁restric tions</w>
▁re in
▁part ner</w>
▁n erv
▁im pose</w>
▁cl ient</w>
a u</w>
W oo</w>
Gy▁ eong
▁sol id</w>
▁p riv
▁im port</w>
▁begin s</w>
▁ad ap
▁Gir ls</w>
▁Coll ege</w>
trans port
ij eong
con du▁c
armaceu tical</w>
a eg
▁w o▁r
▁smo king</w>
▁reg ime</w>
▁parti ally</w>
▁n ecess
▁disclos ed</w>
▁Ar my</w>
l og
il os
employ e▁es</w>
B r▁
▁r ally</w>
▁n ote</w>
▁inter ior</w>
▁hon or</w>
▁fir es</w>
▁Asi ana</w>
▁- -</w>
w▁ ar</w>
si o▁ns</w>
on a</w>
me▁d ical</w>
l e▁s</w>
ho▁ l
anm ar</w>
al▁ ready</w>
▁wat er
▁temper atures</w>
▁sec re
▁s ac
▁p ork</w>
▁m al
▁ecos ystem</w>
▁Res idents</w>
▁R ural</w>
s▁ ized</w>
p at▁
i▁l l▁
ac ting</w>
S A</w>
Je▁ ju</w>
▁el imin
▁comp on
▁ar chitec
▁N orthern</w>
t▁ le</w>
sal es</w>
repres ent▁
itch en</w>
h i</w>
4 8</w>
2 9
12 th</w>
▁inten si
▁deliber ate</w>
▁S ol
i▁c es</w>
i ol
f▁or m</w>
C entr▁al</w>
, 7
▁mas sive</w>
▁gather ing</w>
▁acqu isition</w>
▁N ot
v eh
s▁ afety</w>
r▁ ough</w>
rel atio▁ns</w>
pl▁ ex</w>
i e▁nce</w>
elec t▁ed</w>
P ar▁k</w>
D el
201 5</w>
▁win ner</w>
▁st ates</w>
▁ro of</w>
▁r ating</w>
▁prog res
▁pleas ant</w>
▁exp iration</w>
▁exhib itions</w>
▁W ill</w>
▁B en
ul▁ tural</w>
ucle▁ ar</w>
s ea</w>
re▁ st</w>
ed▁ ly</w>
econom ic</w>
c ourt</w>
C oun▁
▁trou ble</w>
▁p our
▁mar ine</w>
▁crea m</w>
umb ent</w>
re q▁u
re port▁ed</w>
pr ises</w>
po▁ p
pop ul▁ar</w>
ll ing</w>
l ey</w>
h op▁e</w>
an▁ ch</w>
a w▁ay</w>
▁tea ching</w>
▁suppl ied</w>
▁prof essors</w>
▁inform ed</w>
▁aw ards</w>
▁aim s</w>
t ae</w>
es ides</w>
ampion ship</w>
1 5th</w>
▁util ize</w>
▁under ground</w>
▁qu ick</w>
▁G un
ro oms</w>
per ly</w>
organiz atio▁ns</w>
m ulti</w>
in▁ cial</w>
hi▁ gh
c a▁ll</w>
ac ti▁ve</w>
S h▁in</w>
G w▁
▁fil ming</w>
▁cl er
▁appro ach</w>
▁Am azon</w>
u ition</w>
m▁ an
i▁n cial</w>
iv▁ er
issi ons</w>
ind epend
av il
3 8</w>
▁t ar
▁19 6
▁ ent</w>
wo▁r king</w>
ul p
p oi▁nt</w>
on ment</w>
in ations</w>
h▁av ▁e</w>
for ceme▁nt</w>
c k</w>
b al</w>
S o▁
▁st ea
▁proc essed</w>
sec reta▁ry</w>
sc▁h ool</w>
s o▁l
m ove</w>
c▁ oun
, 6
▁step s</w>
▁see king</w>
▁r oyal</w>
▁ph ones</w>
▁frequ ent</w>
▁forec ast</w>
▁con clusion</w>
w ing</w>
tu▁ al</w>
st a▁n
s e▁nt</w>
s afety</w>
mea▁ sur
ind ep
h▁ a▁d</w>
gover n▁
contin u
ch es
b▁e fore</w>
brea k</w>
ay ment</w>
0 .
▁ur ged</w>
▁g aining</w>
un ion</w>
if▁ ic</w>
Pri▁ me</w>
▁sm oke</w>
▁mess ages</w>
▁exper tise</w>
▁ad ult</w>
s▁ er▁
l ater</w>
it ely</w>
is h▁
intern at▁ional</w>
ec o</w>
dom▁ estic</w>
c ust
M i▁n
D a▁
▁tem ple</w>
▁larg er</w>
▁gr anted</w>
▁accur ate</w>
s▁h oul▁d</w>
ph ot
os is</w>
k age</w>
h ou▁
W elfa▁re</w>
Kor▁ ean</w>
D is▁
3 4</w>
▁volunt ary</w>
▁expen se</w>
▁bo y</w>
▁Pas tor</w>
▁In nov
▁Gw anak</w>
▁Con trol</w>
n e▁d</w>
ee▁ ds</w>
d ▁e</w>
an el</w>
ai▁ r</w>
P▁ar ty</w>
K a▁ng</w>
2▁ 0</w>
11 th</w>
▁rep eatedly</w>
▁foot ball</w>
▁K wang</w>
t▁r y▁ing</w>
sit uation</w>
i▁n v
de▁c i▁ded</w>
ann ou▁n
▁w ine</w>
▁surpr ised</w>
▁dis asters</w>
▁ded icated</w>
▁E U</w>
▁A uth
with standing</w>
u▁ tion</w>
s▁ un</w>
se▁ cond</w>
os s
ond on</w>
mi▁ll ion</w>
ma▁ y</w>
j udg
exper i▁
ed g▁ed</w>
e ung
duc es</w>
ch on</w>
19 th</w>
▁tax pay
▁politi ci
▁don ated</w>
▁cancell ation</w>
▁boo k
▁C er
wh el
un▁ ity</w>
ter ▁n
pl us</w>
l▁ ik
iv▁ en</w>
ay ers</w>
ang h
ain ts</w>
▁minis try</w>
▁kil om
▁U rban</w>
▁St ore</w>
zbek istan</w>
tr u▁c
pl at
over se▁as</w>
or ful</w>
m e▁d</w>
intern ation▁al</w>
con▁ ti▁n
bec a▁me</w>
a▁ st
ati s</w>
ar▁ tment</w>
amp▁ ;</w>
ag er</w>
M e
H all</w>
1 8th</w>
&ap▁os▁ ;</w>
▁reg arded</w>
▁C h▁
l on▁g</w>
hi▁ m</w>
B u▁
A sia</w>
▁st eadily</w>
▁st adium</w>
▁sol ar</w>
▁ran king</w>
▁app oint</w>
▁a te</w>
ow n▁ed</w>
m ad▁e</w>
f requ
conc entr
S ▁h
Gover n▁ment</w>
▁restor ation</w>
▁prev enting</w>
▁f allen</w>
▁ev ac
▁calcul ated</w>
▁Se wol</w>
▁P ur
▁J eong
y▁ oung</w>
s ou
es▁ ted</w>
as ting</w>
▁w aves</w>
▁ver ification</w>
▁sub ordinate</w>
▁fr aud</w>
▁comp ar
▁air craft</w>
▁N ew
urr ence</w>
s▁ l
r▁ ep
oc▁r atic</w>
m anufactur
inspec ti▁on</w>
ig g
ft ware</w>
ate▁ gy</w>
ash ing</w>
S ept
@▁ -▁@</w>
&▁apo▁s ;t</w>
▁win ners</w>
▁sup posed</w>
▁strength ened</w>
▁fun eral</w>
▁deb ut</w>
▁In spec
▁Hwas eong</w>
ur e▁s</w>
t me▁nt</w>
st ory</w>
p .▁m.</w>
ov .</w>
n▁ ess</w>
f i▁ne</w>
att ached</w>
C o▁n
▁st aying</w>
▁l et
▁e scape</w>
▁S ociety</w>
u▁s try</w>
ous ness</w>
m yeo▁n</w>
h▁ el
e in</w>
a▁ rou▁nd</w>
ac le</w>
H a</w>
C ultur▁al</w>
A pril</w>
▁tea ch</w>
▁sol ved</w>
▁m ood</w>
▁gu ests</w>
partic▁ ip▁
o pl▁e</w>
in formation</w>
for▁ m</w>
fir s▁t</w>
fac ▁t</w>
envir o▁n
as hed</w>
Ch▁ ina</w>
Associ ati▁on</w>
▁l ea▁
wor kers</w>
tem per
r▁ ul
ri ties</w>
ma▁ t
l and
ign ment</w>
grad u
f ig
ec te▁d</w>
c ame</w>
U. S▁.</w>
, 4
▁in her
▁g e
▁allow ance</w>
▁&q▁u o▁t;</w>
por▁ t
oth e▁r</w>
f os
en ior</w>
ellec tual</w>
d ae</w>
c ou
a▁t es</w>
Comm▁ ittee</w>
Am er
5 0
▁selec ting</w>
▁saf ely</w>
▁f ro
▁I s
wh▁ ere</w>
ultur ▁e</w>
sp a▁ce</w>
r o▁ss</w>
pl an
j oin
ign ation</w>
f ine</w>
et t▁er</w>
er g▁
b i▁
S ong
▁str eets</w>
▁inspec tions</w>
▁Sen ior</w>
▁R ob
▁R eal</w>
w▁ it▁h</w>
t ook</w>
ri c</w>
res ul▁ts</w>
pr▁oc▁ ess</w>
ow ad
o y▁
h um▁an</w>
f ish
ent age</w>
F eder
C ou▁n
▁though ts</w>
▁s a▁id</w>
▁comm unities</w>
▁ab und
▁Par is</w>
▁Independ ence</w>
th ere
t ech</w>
s e▁d</w>
rece i▁ve</w>
f inis
beg▁ an</w>
In tern▁
▁sti p
▁sinc er
▁k een</w>
▁4 00</w>
p re</w>
iv ▁ed</w>
int▁ er▁
ic k▁
ach es</w>
Ju▁ ly</w>
&▁ a▁
▁u l</w>
▁sm ile</w>
▁refug ees</w>
▁r ace</w>
▁atten dance</w>
t▁ ive</w>
th▁ ere</w>
s m▁
r ad
p oor</w>
n ews</w>
larg e▁st</w>
h ib▁
gan ic</w>
g el
f▁ in
e▁ lec
em phas
▁s ai▁d</w>
▁rec ip
▁fin es</w>
▁Y eah</w>
▁Ital y</w>
▁Al ong</w>
un i
ti▁ al</w>
rev eal▁ed</w>
ra▁p h</w>
g ir
fu▁ ll</w>
erea ved</w>
cri tici
c en▁
areunm irae</w>
an ian</w>
▁recor ding</w>
▁er ror</w>
▁con fron
▁S in
▁J ohn</w>
▁Ar ab
w▁ i▁ll</w>
sh ort</w>
h app
g ▁e</w>
compan ie▁s</w>
ch▁ ool</w>
9 2</w>
, 9
▁volunt arily</w>
▁veget ables</w>
▁identi fy</w>
▁enjoy ing</w>
▁ear th</w>
▁certif ied</w>
▁P OSCO</w>
▁M or
▁Hea vy</w>
▁Gor yeo</w>
▁C ustom
w el
se ver
pro moti▁on</w>
ot▁ el</w>
minis t▁er</w>
l er</w>
is▁ t
go▁ al</w>
ex chang
an ish</w>
▁trans port</w>
▁s inc▁e</w>
▁rec ycl
▁fe et</w>
▁CC TV</w>
u h
oo den</w>
e▁n ti
citiz e▁ns</w>
ch o</w>
a▁ fte▁r</w>
atio▁n al</w>
an▁ other</w>
af ternoon</w>
C ourt</w>
, 8
▁vis its</w>
▁sw imming</w>
▁s outh</w>
▁s ick</w>
▁op pon
▁f ake</w>
▁clos ing</w>
wee k
sa▁ y</w>
r al</w>
o▁ u▁t</w>
m anufac
m ant
in sur
c ap▁
S▁e o▁ul</w>
S E
Fin anci▁al</w>
Bl▁ ue</w>
▁piec e</w>
▁c o▁
▁bat tery</w>
▁G alaxy</w>
u g▁
su▁pp o▁rt</w>
h ig▁h</w>
eas ing</w>
e t▁s</w>
chai▁r m▁an</w>
c itizens</w>
an▁ k</w>
Nor t▁h</w>
2 1st</w>
▁p rou
▁in stitutes</w>
▁con tribu
▁P o
▁L t
▁1 .5</w>
t▁ ae</w>
r▁ d</w>
l▁ ine</w>
i▁ als</w>
il t</w>
a▁ ms</w>
ap ed</w>
C D</w>
▁partic ularly</w>
▁fur n
▁d r▁
▁c ells</w>
▁C el
si us</w>
oc r▁
is▁ on</w>
P r▁es
Gang won</w>
F o▁
▁tex t
▁succ eeded</w>
▁st ood</w>
▁recru it</w>
▁hol ds</w>
▁des ire</w>
▁cor ner</w>
▁c ultur
▁br idge</w>
▁U.S.- China</w>
▁S uch</w>
sub ▁
sex u▁al</w>
pos▁ it▁ion</w>
over s</w>
n▁ um
l ar▁
er in▁g</w>
cur r▁
at▁ her</w>
ak ▁
Serv i▁ce</w>
P▁ l
Mar ch</w>
D evelopme▁nt</w>
C o
B O</w>
▁writ er</w>
▁s ew
▁revital ize</w>
▁r ▁
▁mob il
▁dest ination</w>
▁c ircles</w>
▁S ur
yo▁ ung</w>
vers ity</w>
t▁ iv
pro gr▁am</w>
pr eme</w>
politi c▁al</w>
j▁ oy</w>
il eg
e▁n tly</w>
e▁ men▁t</w>
exc ell
et▁ ter</w>
eong nam</w>
d▁ own</w>
driv i▁ng</w>
d et▁
chil d</w>
H▁ an</w>
▁un comfortable</w>
▁serv ants</w>
▁pers pec
▁lif elong</w>
▁ex tingu
▁c at</w>
▁bo ost</w>
▁T witter</w>
▁2 ,000</w>
wh a▁t</w>
t l▁y</w>
resear ch▁er</w>
poin t▁ed</w>
owad ays</w>
en ses</w>
d uring</w>
Y o▁on</w>
C on▁
▁tim ing</w>
▁scholar ship</w>
▁k eeping</w>
▁di e</w>
▁cal c
▁advertis ement</w>
▁Yong san</w>
▁E gyp
w▁ ard</w>
techn ology</w>
star ti▁ng</w>
pr ing</w>
h ours</w>
e▁ x</w>
▁w est</w>
▁hel p
▁favor able</w>
▁dis appoin
▁b id
▁3 6</w>
sus p▁
respec tively</w>
l▁ ife</w>
ien t▁ed</w>
dis cu▁
cl▁ os
ach eon</w>
S ong</w>
N E
▁mand atory</w>
▁l ab
▁inc umbent</w>
▁displ ayed</w>
s▁ orr▁y</w>
s▁ ol
s▁ e
sup▁ port</w>
res erv
e▁n se</w>
e d▁uc
▁z ones</w>
▁t uition</w>
▁st ance</w>
▁satis fied</w>
▁over l
▁low ered</w>
▁Every one</w>
urr y</w>
l▁ ittle</w>
▁sc andal</w>
▁gu est</w>
▁ab norm
▁L un
▁El ementary</w>
▁201 ▁
ri▁ se</w>
ov e▁r</w>
on ic</w>
m y▁eon</w>
lea di▁ng</w>
id ential</w>
go al</w>
fr▁ i
In cheon</w>
▁op posed</w>
▁fl av
▁epis ode</w>
▁chann els</w>
▁c ou▁ld</w>
▁an gry</w>
▁a l▁
tor al</w>
ood les</w>
l t</w>
b es</w>
af▁ ter</w>
▁f ulf
▁am b
vis it</w>
rel eas▁ed</w>
re t▁
pos sib▁
fi▁r st</w>
find i▁ng</w>
ea ble</w>
der ▁s</w>
a▁m a</w>
▁str ange</w>
▁l ibr
▁inten ded</w>
▁h ur
▁a uto</w>
ver▁ sy</w>
un ivers
re port
mon t▁h</w>
if i▁ed</w>
f▁ ro▁m</w>
f il▁
et own</w>
▁K oo</w>
▁Ex change</w>
▁Do osan</w>
e▁nt ary</w>
a▁ rea</w>
an▁ ks</w>
▁person ality</w>
▁expl ains</w>
▁e c
▁comm od
▁O b
▁F isheries</w>
▁B ae</w>
p it
or ient▁ed</w>
n ation</w>
l ea▁r
j u▁ng</w>
c ou▁rt</w>
ar i</w>
and is</w>
▁wea pons</w>
▁ris en</w>
▁rep eated</w>
▁p al
▁a c▁
▁Pl anning</w>
▁ tr
sp ace</w>
our▁ t</w>
lik ely</w>
govern m▁ent</w>
e▁n t▁
compa▁n ies</w>
att en▁
am ber</w>
al k
Sec uri▁ty</w>
▁dr aft</w>
▁advertis ements</w>
▁B areunmirae</w>
tog eth▁er</w>
em er▁
comm unity</w>
ag on</w>
aff airs</w>
▁to il
▁s auce</w>
▁offic io</w>
▁l ength</w>
▁her itage</w>
▁gu ard</w>
▁ass igned</w>
▁Air lines</w>
wi▁ fe</w>
s▁ oon</w>
pr ise</w>
m ind</w>
k▁ ers</w>
ir t</w>
inc▁ re▁ase</w>
il ty</w>
con serv
P al
▁withdraw al</w>
▁suppl ies</w>
▁l e▁v
▁Th ursday</w>
▁S orry</w>
▁My anmar</w>
▁G ar
ref lec
ran ki▁ng</w>
od es</w>
ik es</w>
gr and
ea▁ t</w>
d in▁
an a▁l
&a▁pos; d</w>
▁tour nament</w>
▁n arrow</w>
▁h idden</w>
▁Mar itime</w>
▁M ich
▁Law maker</w>
▁Her itage</w>
▁A ward</w>
v e▁r</w>
ur ches</w>
k▁ now</w>
go i▁ng</w>
e▁ ong</w>
cont in▁ue</w>
ac cus
En▁ g
. 7
▁res t
▁co ordin
ro le</w>
previ o▁us</w>
mat ch</w>
iv▁ ing</w>
es pec
att ach▁ed</w>
S o</w>
A p
▁oper ates</w>
▁lux ury</w>
▁j us
▁fl ag</w>
▁arr anged</w>
▁M er
pos t</w>
op i▁n
me▁ di
ech▁ n
caus ▁ed</w>
P▁ ark</w>
J a▁ng</w>
Gang nam</w>
▁r oo
▁perc entage</w>
▁m o▁n
▁m ission</w>
▁gradu ate</w>
▁gener ated</w>
▁ex cluding</w>
▁Offic ials</w>
▁M od
▁Il bo</w>
ti▁ l</w>
ti g
m▁ ar▁
ma▁r ket</w>
l▁ et</w>
h wan</w>
g▁ ot</w>
eti zens</w>
ak a</w>
a ver
▁sh ips</w>
▁sett led</w>
▁mul ticultural</w>
▁deep ly</w>
▁bur eau</w>
▁agric ulture</w>
sec uri▁ty</w>
s o▁m
pol icies</w>
ow▁ s</w>
os eong</w>
ic i▁al</w>
h u▁
g ent
ec e</w>
d ingly</w>
cul▁ tural</w>
comm uni▁ty</w>
c all</w>
appear ▁ed</w>
al one</w>
▁‘ ‘</w>
▁s ix
▁Jeon ju</w>
▁J u</w>
u▁ ry</w>
reg ar
o▁ te</w>
i▁ tie▁s</w>
du▁r ing</w>
ag a▁in</w>
R e
Artic▁ l▁e</w>
▁v otes</w>
▁sam ples</w>
▁s qu
▁m agn
▁f it</w>
▁brea d</w>
▁ass oci
▁Sou theast</w>
▁Jeoll anam</w>
t▁ al
tern s</w>
s▁ ia</w>
s een</w>
pe▁r son</w>
ordin ary</w>
ol▁ ogy</w>
issu es</w>
inc▁ rea
ill▁ ion</w>
conduc t▁ed</w>
c au
a▁ mo▁
▁trea t</w>
▁thor oughly</w>
▁sm oothly</w>
▁evalu ate</w>
▁demonstr ation</w>
▁W ater</w>
▁J oint</w>
r▁ ed
on ight</w>
hos t▁ed</w>
expec t
e ig▁ht</w>
c a▁n
P yong
A ug
▁scen es</w>
▁s or▁ry</w>
▁ref used</w>
▁par agraphs</w>
th ird</w>
man ip
igh ter</w>
go▁ ver
f u▁n
environ me▁nt</w>
d ig
A pr▁il</w>
▁w astes</w>
▁w alls</w>
▁k ids</w>
▁gr and</w>
▁H ead</w>
und▁ ai</w>
ult▁ ural</w>
s▁ ince</w>
s per
coun tri▁es</w>
ati cs</w>
▁rout es</w>
▁prom ise</w>
▁n o▁t</w>
▁main taining</w>
▁li ked</w>
▁hel icop
▁gener ations</w>
▁b ereaved</w>
▁St adium</w>
▁H ousing</w>
▁Dis aster</w>
inn ov▁
e▁ ars</w>
5 2</w>
▁pres ervation</w>
▁harm ful</w>
▁Pre viously</w>
s oc▁
p▁ ar▁
j ak</w>
es▁ tiv
dr y</w>
c▁ ent</w>
con ti▁n
az ine</w>
▁clos er</w>
▁U zbekistan</w>
▁Sh ow</w>
▁A g
u▁s h</w>
si▁ ty</w>
om ing</w>
is ▁t</w>
g ather
enti ally</w>
design at▁ed</w>
ag▁ ain▁st</w>
ac ▁t</w>
▁volunt eers</w>
▁res ulting</w>
▁out come</w>
▁illeg ally</w>
▁fea sibility</w>
▁comp ete</w>
tiv ▁es</w>
t unately</w>
sur ▁e</w>
s i▁n
q▁u▁ ot;</w>
o▁l ogy</w>
f ol
el l▁
ch ▁es</w>
as sed</w>
B u
A g
4 9</w>
&▁a pos;▁s</w>
▁rea c
▁l ink</w>
▁extr em
▁be ef</w>
▁Eng land</w>
serv ices</w>
ook min</w>
om estic</w>
m i▁ng</w>
l in</w>
l es▁s</w>
itt ees</w>
ig er
c▁ ar
at o</w>
ab inet</w>
2 7th</w>
▁off ers</w>
▁cons ult</w>
▁cons ensus</w>
re▁ t
pr o</w>
g▁ ro▁
dis ab
N o.</w>
1 4th</w>
▁w ild</w>
▁vis ion</w>
▁some what</w>
▁implem enting</w>
▁S u</w>
▁M ilitary</w>
n u▁m
m et
gr at
di▁ sc
az ing</w>
agr am</w>
N G</w>
J eon
▁occ as
s uc▁h</w>
organiz ati▁on</w>
iver ▁
f▁ uture</w>
fr ont</w>
e▁ ff
b or</w>
b en
Sup re▁me</w>
S ep
▁ris ks</w>
▁F SS</w>
▁3 8</w>
wor ds</w>
ven ti▁on</w>
v ent</w>
s▁ ide</w>
q▁ ue</w>
int egr
gu es</w>
de ung
c ess</w>
af te▁r</w>
ac ific</w>
Mar▁ ch</w>
A hn</w>
▁separ ated</w>
▁pl▁ ace</w>
▁perman ent</w>
▁o d
▁c argo</w>
▁N e
u d</w>
p oin▁
p ain
f ew</w>
ey ed</w>
ad j
&apos; ▁
▁l ights</w>
▁har assment</w>
▁happen s</w>
▁collap sed</w>
▁ch osen</w>
▁b ow
▁V ol
se qu
k g</w>
iss▁ ue</w>
f ish</w>
d one</w>
H ou▁se</w>
▁form ation</w>
▁answ ered</w>
▁adj ustment</w>
t▁ri al</w>
s▁ ayin▁g</w>
p▁ art</w>
p ool</w>
o▁ pe</w>
over ▁
m▁ od
li▁ ve</w>
in qu
id er</w>
er▁ y</w>
environ ment</w>
c ou▁
▁tempor arily</w>
▁pos s
▁bea ch</w>
▁b ar</w>
▁ad mitted</w>
▁Not withstanding</w>
fu▁ l</w>
ed estr
ab uk</w>
W omen</w>
Agric ultur▁al</w>
▁produc ing</w>
▁l ed
▁impres sive</w>
▁car bon</w>
▁accum ulated</w>
▁Y eon</w>
▁Sw ed
▁Gyeongsang nam</w>
t▁ on</w>
pl▁ y</w>
pe▁ opl▁e</w>
l ad
en a</w>
b oo▁
az e</w>
ay a</w>
a he▁ad</w>
F C</w>
&▁a pos▁;t</w>
▁up coming</w>
▁st ages</w>
▁sit ting</w>
▁restric ted</w>
▁cons ist
▁Gwang jin</w>
▁Ch un</w>
▁C ath
▁4 0s</w>
s k▁
quart e▁rs</w>
pa▁ y
infl u
fe▁ el</w>
f u▁r
ev en
em a</w>
art ers</w>
. 8
▁st om
▁mar ks</w>
▁lim itations</w>
▁investig ations</w>
▁fre edom</w>
▁fa ith
▁crack down</w>
▁b ear</w>
▁G ood</w>
trad ition▁al</w>
spec ial</w>
pos▁ si▁ble</w>
in c▁lud
h y</w>
f a▁r
etro po▁l
elec tr▁
co in</w>
as c
areunm ir▁ae</w>
al i▁ty</w>
A ut
▁the ory</w>
▁ob ser
▁m ir
▁kilom eters</w>
▁Conf uc
▁B ucheon</w>
w ee▁
s▁ exual</w>
sup pl
sa▁ ying</w>
ill ing
e▁ te</w>
dec▁ is▁ion</w>
c▁h a▁nge</w>
aff ili
S e</w>
D P</w>
B areunmir▁ae</w>
▁indic ators</w>
u til
rex it</w>
r y
o▁ use</w>
compl▁ ex</w>
S K</w>
Ch e
▁slow down</w>
▁sec ondary</w>
▁prov ision</w>
▁min or</w>
▁log istics</w>
▁disp utes</w>
▁beh alf</w>
▁a im</w>
▁M ok
v id▁eo</w>
struc ▁
r▁ s</w>
g i
eti n</w>
enterpris ▁es</w>
ad d▁ed</w>
Ch a▁ir
. 9
▁pas sion</w>
▁ex ist</w>
▁C J</w>
pay me▁nt</w>
m▁ uch</w>
inform▁ ation</w>
im al</w>
ew er</w>
diff▁er ent</w>
comp▁an ie▁s</w>
avo id
ak arta</w>
a ise</w>
S i</w>
J▁ ae</w>
▁tur ns</w>
▁res ▁
▁rain y</w>
▁anx iety</w>
▁K E
▁G uro</w>
tr ue</w>
th w
th rou▁
th ei▁r</w>
s ent</w>
o▁ b
gover n▁ment</w>
e▁ um</w>
contr a▁ct</w>
b▁ o
ar res
am ing</w>
af t▁
a ur
H ead
▁var i
▁t op
▁resid ence</w>
▁res erve</w>
▁f erry</w>
▁cler k</w>
▁B ang</w>
un▁ ch</w>
p oll
in ning</w>
ful▁ ly</w>
G ov▁ern
F r▁
3 6</w>
▁targ ets</w>
▁m erg
▁le▁v el</w>
▁e ast</w>
▁boy friend</w>
▁boo ked</w>
sus p
m its</w>
la▁ w</w>
if ▁e</w>
exp a▁nd</w>
enc our
co▁ ll
az ak
L G</w>
Ch il
5 5</w>
▁character ized</w>
▁answ ers</w>
ur▁ ch</w>
tr▁ ict</w>
sid ▁e</w>
la▁ w
j oin▁
ilit ation</w>
hist ory</w>
eas y</w>
d ust</w>
co▁n t▁
a▁r ty</w>
ag e▁s</w>
Dep u▁ty</w>
▁st ayed</w>
▁review ing</w>
▁m ass
▁k itchen</w>
▁entr eprene
▁drea ms</w>
▁d eal
▁Un ification</w>
pro▁ bl
per▁ sonal</w>
m▁ at
m ent▁s</w>
g rea
c iti▁es</w>
G eun</w>
& am▁p;</w>
▁loc als</w>
▁ass istance</w>
▁ab sol
▁V alley</w>
▁S ure</w>
▁D em
w▁ it
w o▁men</w>
t▁ ake</w>
s▁ ai▁d</w>
p ti▁on</w>
ous▁ ly</w>
or gan
k ish</w>
eleb rities</w>
ch ief</w>
Com▁ m
▁r om
▁academ y</w>
▁N et
▁Com pared</w>
▁Co ast</w>
▁3 ,000</w>
w▁ ith
s por▁ts</w>
s av
res sion</w>
r ank
om e▁n</w>
g rou▁nd</w>
ea ting</w>
e y▁
all ig
▁tr ain
▁thor ough</w>
▁sm ell</w>
▁pr o</w>
▁ph ase</w>
▁mur der</w>
▁gener ally</w>
▁fac tories</w>
▁co ol
▁civ ilian</w>
▁P resid
▁5 0s</w>
per▁ ty</w>
m u▁st</w>
dis app
angh ai</w>
S um
▁strugg ling</w>
▁sen iors</w>
▁im ports</w>
▁dom in
▁cl oud</w>
▁b ond</w>
▁abs ence</w>
▁Dru g</w>
w▁ or▁
s eas
pre dic
ov el</w>
e▁ er</w>
e▁ at</w>
c▁ha▁r ge</w>
H y▁
H e</w>
A▁ ss
▁res truc
▁controversi al</w>
▁Wor kers</w>
▁U K</w>
w arr
us hed</w>
se▁ en</w>
sec tor</w>
pos▁ ition</w>
o▁ ri
mon▁ ey</w>
a▁mo▁ unt</w>
ap▁ ed</w>
L im</w>
▁t ears</w>
▁scor es</w>
▁mat ches</w>
▁kn ows</w>
▁acqu aint
▁S al
tu s</w>
r igh▁ts</w>
os c
m▁ ental</w>
mor ni▁ng</w>
if ic▁
e▁n d
du▁ ce</w>
dis c▁
direc t▁ly</w>
ch a▁ng
S▁ eo</w>
Su▁ preme</w>
S por▁ts</w>
Pro sec
; ll</w>
13 th</w>
▁tr uck</w>
▁mis s
▁institu tional</w>
▁fac ed</w>
t▁ ment</w>
r e▁d</w>
pro mis
he▁ on</w>
fr▁ o▁m</w>
em y</w>
diff e▁r
b▁ ers</w>
B a▁nk</w>
▁small er</w>
▁n oted</w>
▁liter ature</w>
▁analy zing</w>
▁P ost</w>
▁C andid
um ul
iv alent</w>
g yo</w>
ev e▁r
et c.</w>
d own
Y▁ oo</w>
▁neighbor hood</w>
▁mo is
▁g ri
▁b io</w>
▁S um
▁Jud ge</w>
w ed</w>
ti▁ c
su ff
ri▁s k</w>
re te</w>
rais ▁ed</w>
min u▁te</w>
m enti
iti▁ ve</w>
it ability</w>
f u
d eath</w>
Tra▁ de</w>
O ct
1 6th</w>
▁win ds</w>
▁const antly</w>
▁abund ant</w>
z one</w>
t al</w>
produc t</w>
pol itan</w>
n as
cl o▁se</w>
Tr u▁mp</w>
O s</w>
O R
4 2</w>
▁s ik</w>
▁r oll
▁certific ates</w>
▁Del iberation</w>
▁Ch un
vol unt
therm ore</w>
sus pic
rou▁ ps</w>
re vis
or▁ es</w>
oc king</w>
i▁ cial</w>
erg ency</w>
ep age</w>
eff or▁ts</w>
eep s</w>
d est
d a▁te</w>
a▁l ity</w>
ag eous</w>
S on</w>
Ar t</w>
20 0▁
▁work place</w>
▁subscri ption</w>
▁sp okesman</w>
▁sc enery</w>
▁revis e</w>
▁ex haus
▁b odies</w>
wi▁ de</w>
th ou▁gh</w>
sc ale</w>
osp it▁al</w>
maj or</w>
m e▁nts</w>
in iti
e▁n cy</w>
K▁or ea▁n</w>
Hw a▁ng</w>
Busin e▁ss</w>
A ▁n
2 8th</w>
▁th e▁ir</w>
▁th ea
▁ir reg
▁T h▁
▁Se ocho</w>
▁Afr ica</w>
st▁ ar
s ively</w>
r▁ et▁
foll ows</w>
at▁ i▁on</w>
ab▁ out</w>
a ul</w>
J un▁g</w>
▁sens itive</w>
▁m ission
▁in sufficient</w>
▁cont ain</w>
▁Han oi</w>
▁Con stitutional</w>
vi o▁l
val ue</w>
un ds</w>
t▁ ional</w>
ol▁ ve</w>
n▁ ame</w>
mo▁ ve</w>
e ived</w>
c▁ ity</w>
au gh</w>
In d▁
▁thous ands</w>
▁re f▁erred</w>
▁mon etary</w>
▁for ms</w>
ver s▁
n at▁
in te▁
i us</w>
i ated</w>
en▁ tial</w>
el▁ d</w>
eep er</w>
com par▁ed</w>
char g▁es</w>
Y ear</w>
▁sub committee</w>
▁re views</w>
▁gradu ates</w>
wor▁ ks</w>
tr i▁ll
tr ea▁
su▁ it</w>
o▁ to</w>
j▁ ust</w>
j▁ ae</w>
j ung</w>
g ok</w>
e▁x pec
ex chan▁ge</w>
der ▁ed</w>
ca▁ p
2 6th</w>
▁prot est</w>
▁ins isted</w>
▁h ate</w>
▁di alogue</w>
y wood</w>
sit es</w>
ron ic</w>
or ▁e</w>
n ation
m o▁r
er▁ ing</w>
econ o▁my</w>
cas es</w>
ad em▁
R es▁
G▁ u</w>
3 9</w>
▁serv ing</w>
▁n orth</w>
▁gre en
▁counter measures</w>
▁H ome</w>
▁Dec laration</w>
▁@ ▁
tr ip</w>
t ype</w>
si▁ a</w>
s in▁g</w>
m eas▁
indus▁ trial</w>
in s▁
direc tor</w>
de▁v el
a c</w>
H a▁ll</w>
Gwang ju</w>
Al t▁h
▁pres ence</w>
▁l ong
▁fir ▁st</w>
▁dist ingu
▁Reg ional</w>
▁I sl
st ing</w>
ministr ative</w>
ess i▁on</w>
e very</w>
e h▁
draw i▁ng</w>
d iv▁
0 ,0▁00</w>
▁ter r
▁prec ious</w>
▁honor ary</w>
▁fr▁ om</w>
▁dis position</w>
▁c a▁n</w>
▁Gyeongsang buk</w>
▁F our</w>
▁E ui</w>
▁B MW</w>
▁@▁ -@</w>
uc k
r▁ is
o▁ le</w>
os ing</w>
mon t▁hs</w>
l angu
ir s</w>
differ e▁nt</w>
dh ood</w>
acc o▁rd▁ing</w>
C▁h ina</w>
4 3</w>
▁qual ification</w>
▁prefer ential</w>
▁correspon dent</w>
sib ilities</w>
sea s▁on</w>
ot ten
inter n▁
ea ch
diff▁ ic
b▁ec ome</w>
bo▁ ok</w>
anc e▁s</w>
W h▁
I l
C ultu▁re</w>
▁tar iff</w>
▁help ful</w>
▁em otional</w>
▁Int elligence</w>
▁I D</w>
▁Cri tics</w>
uc tu
te▁ ch</w>
re port</w>
manag e▁ment</w>
l ead</w>
k n▁
in ery</w>
ici ans</w>
e▁ ther</w>
ex isti▁ng</w>
e ul</w>
cons ci
▁subscri bers</w>
▁so il</w>
▁r ock</w>
▁franch ise</w>
▁charg ing</w>
▁b on
▁an ti
▁S o
▁M ac
▁&apo▁s ;▁s</w>
par k</w>
h our</w>
g▁ an
er as</w>
end ship</w>
con▁ti▁n ue</w>
anm unj
A I
▁subsid iary</w>
▁sl eeping</w>
▁ind oor</w>
▁ear ned</w>
▁cur ious</w>
ustain able</w>
ig h▁er</w>
ch ar▁
U l
M▁ ar
H a▁n
C ▁up</w>
. 6
▁uncer tain
▁prob ably</w>
▁fun ding</w>
▁f ighting</w>
▁dem entia</w>
▁Th e▁re</w>
ug ar</w>
t m▁ent</w>
s▁h ou▁ld</w>
su▁ n</w>
st▁ op</w>
sel ▁f</w>
om er
e▁ ge</w>
c▁h an▁ge</w>
cre a▁te</w>
all i▁ng</w>
W▁ or
Jus ti▁ce</w>
▁wh▁ o</w>
▁un expected</w>
▁k illing</w>
▁contr ary</w>
▁aband oned</w>
▁I sn</w>
▁I l</w>
u▁ g
rea son
re po▁r
ow▁ ing</w>
oc ol
il▁ lio▁n</w>
el▁ l
dep art
R▁ W</w>
P l▁
P a▁
N e▁w</w>
4 4</w>
1 s▁t</w>
▁strateg ic</w>
▁incen tives</w>
▁estim ate</w>
▁enti ty</w>
▁H er</w>
pr em
por t▁s</w>
por ter</w>
oo▁ ds</w>
i▁r st</w>
fam ili▁es</w>
ex ten
elih ood</w>
eas e▁d</w>
at▁ io▁ns</w>
B yung</w>
▁un t▁il</w>
▁sharehol der</w>
▁ser iously</w>
▁ex actly</w>
▁Han a</w>
▁B ible</w>
w▁h er▁e</w>
s▁ ik</w>
qu arter</w>
pos sib▁le</w>
pl anni▁ng</w>
m or▁
j ang</w>
b ang</w>
an▁ cial</w>
a eb
Th▁ at</w>
G a▁ng
▁rev olution</w>
▁ph r
▁c ust
▁T uesday</w>
u▁r es</w>
th i▁n
sh ip
offic ials</w>
ew or
er▁ n
em▁ bly</w>
emb l▁y</w>
dec lar
com i▁ng</w>
can n▁ot</w>
ai▁ ly</w>
ai▁ l
▁work shop</w>
▁sim ultan
▁rail way</w>
▁par ▁
▁mon itor</w>
▁f ab
▁Innov ation</w>
▁A f
v i▁s
v al▁ue</w>
ual ties</w>
ret u▁rn</w>
parag ra▁ph</w>
p ass</w>
oc ated</w>
ic als</w>
h ap▁
g reat</w>
ff▁ ic</w>
bl es</w>
ag ency</w>
Univer ▁
In stitu
▁st y
▁prom ising</w>
▁m oon</w>
▁let ters</w>
▁gir lfriend</w>
▁cl othing</w>
▁calc ulation</w>
▁Sp anish</w>
▁L ondon</w>
▁H ong
▁Comm erce</w>
ur ▁al</w>
sus pen
i▁ er</w>
in▁ t▁o</w>
deung po</w>
ch e
act▁ iv
I A</w>
▁util izing</w>
▁stat ements</w>
▁prom p
▁analy sts</w>
▁adj usted</w>
▁Med ium</w>
▁5 ,000</w>
▁ try</w>
ul ▁t</w>
t▁ oo</w>
tem por
pas sed</w>
p ir
j oy
ba▁ se</w>
b ase</w>
al ▁e</w>
ain e▁d</w>
S ub
▁stud io</w>
▁str onger</w>
▁semin ar</w>
▁s oo</w>
▁nur sing</w>
▁manufactur ers</w>
▁har mony</w>
▁assaul ted</w>
▁ac tress</w>
▁Re uters</w>
▁L ove</w>
▁K ookmin</w>
w ent</w>
in ev
fun▁ ds</w>
e▁ ws</w>
er▁ ation</w>
el ine</w>
ci t▁y</w>
ac ter
A D</w>
▁w ooden</w>
▁t▁ he</w>
▁rob ot</w>
▁pres erv
▁di et</w>
▁com ment</w>
▁Th ai</w>
▁Bl ack</w>
w ri
ur b▁an</w>
su ffer
s ev▁en</w>
r▁ec ent</w>
or i▁ty</w>
m etropolit▁an</w>
l▁ ook</w>
ig▁h ts</w>
gr i</w>
ec▁ tion</w>
curr ent▁ly</w>
agric ultur▁al</w>
P resident</w>
I sl
Gover ▁n
G r▁
Ass ociation</w>
▁m i</w>
▁j oy</w>
▁cri tical</w>
▁com fort</w>
▁b eat</w>
▁b an</w>
▁ab sor
▁R en
▁M BC</w>
▁Ir anian</w>
var▁ ious</w>
to▁ ld</w>
s ter</w>
p▁os ▁
ol es</w>
i z</w>
ear n
diff i▁c
cus e</w>
b▁ ur
a▁ n▁
act▁ ively</w>
O▁ ffice</w>
▁fol k</w>
▁doc um
▁b r▁
s▁ ing</w>
oun ded</w>
memb er▁s</w>
l ives</w>
is t▁er</w>
h ol▁
eng er</w>
du▁r in▁g</w>
devel▁ op</w>
chang ed</w>
b▁ us</w>
avil ion</w>
St a▁te</w>
S am▁
4 6</w>
, 3
▁sav ings</w>
▁Hy o</w>
▁Gim po</w>
▁Comm unity</w>
u▁ k</w>
un c
re p▁or
pr ices</w>
oot ball</w>
illeg ▁al</w>
hib ition</w>
empl▁ oy
dis clos
bas▁ ic</w>
al ism</w>
J a▁p
DA Q</w>
▁prou d</w>
▁l ▁
▁f ail</w>
▁b ath
▁R ight</w>
▁Cel sius</w>
▁Ar t▁icle</w>
w ould</w>
p▁l ace</w>
ow ns</w>
m aking</w>
fi▁l m</w>
estab l▁
cil or</w>
cer tif
C▁ enter</w>
201 4</w>
▁par ks</w>
▁inten sive</w>
▁cou l▁d</w>
▁chea p</w>
▁acqu ired</w>
▁achiev ements</w>
▁Sm art</w>
▁M c
▁Indi an</w>
▁2 8
tic ▁e</w>
sur v▁ey</w>
st ep</w>
si▁ m
re plac
our c▁es</w>
on▁ y</w>
i▁ n▁
ens ▁e</w>
dem a▁nd</w>
d ay▁s</w>
co▁ un▁
Ph one</w>
▁s ounds</w>
▁f ever</w>
▁equ ity</w>
▁d i▁
▁cultur es</w>
▁Un ions</w>
▁Prot ection</w>
▁Pri ze</w>
▁Mongol ia</w>
▁M oo</w>
▁F TC</w>
▁2 6
ous ▁e</w>
occ up
jec tion</w>
ere in
cor p▁or
comm er
ativ ▁es</w>
am un</w>
▁neg lig
▁con grat
x i</w>
s old</w>
pers o▁ns</w>
lawmak ▁er</w>
in▁ cluding</w>
ific ally</w>
es el</w>
b illion</w>
ai▁n s</w>
2 5th</w>
1 7th</w>
▁th o▁se</w>
▁review ed</w>
▁op posite</w>
▁mis sed</w>
▁hea ting</w>
▁h ired</w>
▁fac es</w>
▁c utting</w>
▁Fur thermore</w>
s▁ ts</w>
r ail
pol ici▁es</w>
or es</w>
ir ty</w>
con f▁
appro priate</w>
af tern
Wor ld</w>
P▁ ol
▁fundam ental</w>
▁every day</w>
▁consid erable</w>
▁Str ategy</w>
▁Jin ju</w>
▁C are</w>
▁6 00</w>
so▁ ld</w>
s anc▁
rev ital
h aps</w>
dis p
contro ver▁sy</w>
G A</w>
2 9th</w>
1 1▁
▁unve iled</w>
▁s c▁
▁practic es</w>
▁post pon
▁memb ership</w>
▁inst alling</w>
▁expec tation</w>
▁effec tively</w>
▁cont acted</w>
▁an cient</w>
▁Aud it</w>
▁3 7</w>
u el
t▁w ee▁n</w>
t▁ri es</w>
rel eased</w>
pa▁ ss
offic ▁e</w>
n ig▁ht</w>
n ex▁t</w>
iz▁ at▁ion</w>
in tr▁
ic ▁ed</w>
ga▁ ve</w>
e▁r a</w>
er▁ ce</w>
ee ing</w>
c▁ au▁
c ili
az ▁
ar i▁
C oll
▁m icro
▁cont ained</w>
▁Lun ar</w>
▁ it</w>
w ear</w>
s▁ ing
ra th▁er</w>
organiz ▁ed</w>
ol d
off i▁ci
ie▁ f</w>
en si▁ve</w>
c▁ are</w>
a▁ ti▁
Su per
S NS</w>
G an▁g
Ass e▁m
4 7</w>
▁mar tial</w>
▁gir ls</w>
▁ex it</w>
▁eng ineering</w>
▁accoun ted</w>
w al
ul▁ d</w>
p▁ port</w>
ploy ed</w>
n ew▁
m▁ us
m ust</w>
gr ade</w>
eo▁ l</w>
d rew</w>
cl ▁e</w>
c or▁
b re▁
▁spec t
▁mut atis</w>
▁differ enti
▁c ycle</w>
▁U N</w>
▁Th eir</w>
▁G un</w>
v el</w>
sh ap▁ed</w>
od aemun</w>
o ons</w>
mid d▁le</w>
i▁ onal</w>
en er▁gy</w>
b er▁s</w>
Ch ung</w>
Ch ai▁r
▁th▁ ink</w>
▁supplem entary</w>
▁prom otional</w>
▁moun tains</w>
▁h an
▁P C</w>
▁11 9</w>
▁0 0</w>
w ak</w>
st able</w>
ell i▁ng</w>
ac▁ h</w>
2 7
▁w illing</w>
▁t un
▁equ ivalent</w>
▁celebr ate</w>
▁attrac tions</w>
▁Is ra
wh o▁se</w>
org an▁
d▁ am
competi ti▁on</w>
c am
at o▁rs</w>
and i▁ng</w>
Hy und▁ai</w>
G ro▁up</w>
▁the i▁r</w>
▁se ts</w>
▁resear cher</w>
▁doc tors</w>
▁S ih
▁Per sons</w>
▁Comm and</w>
treat me▁nt</w>
s ical</w>
s el</w>
pp oin
par ki▁ng</w>
me▁ et▁ing</w>
il ▁ed</w>
ent l▁y</w>
ener gy</w>
bl▁ em</w>
a▁ round</w>
ang ible</w>
U▁ .S.</w>
Sec ur
S er▁
G roup</w>
20▁1 9</w>
▁wit n
▁viol ating</w>
▁util ization</w>
▁un known</w>
▁mat h</w>
▁extr a
▁c and
▁T aek
▁Mar ine</w>
▁Co ach</w>
▁20 ,000</w>
te▁ ll</w>
s▁m all</w>
s▁ ung</w>
su ant</w>
pr▁ es▁
po▁ in
per cent</w>
ott en</w>
o ti▁
lo▁ st</w>
iver s</w>
i el
for ced</w>
end ant</w>
ch i▁ld</w>
ak ed</w>
T his</w>
S c▁h
Pro f
Ch ang
B e
▁w estern</w>
▁typ ical</w>
▁over whel
▁orig in</w>
▁num erous</w>
▁mut andis</w>
▁har v
▁Th ough</w>
▁Gyeong ju</w>
truc tion</w>
si tion</w>
s ign▁
r▁ athe▁r</w>
r es</w>
mit ting</w>
k e▁t</w>
h▁ t</w>
ey es</w>
em ploy▁
e el
ch all
appl i▁ed</w>
V i▁ce</w>
S o▁ng</w>
E ducation</w>
Ce▁n ter</w>
2 4th</w>
▁prem iums</w>
▁pat tern</w>
▁m o▁
▁h ospital
▁coll ective</w>
▁cap abilities</w>
▁c ook</w>
▁M etropolit▁an</w>
▁Ch osun</w>
▁5 5</w>
sh al▁l</w>
s il
res ults</w>
partic i▁p
on a▁l</w>
mod▁ el</w>
l aw▁
househ ol▁ds</w>
com▁p a▁red</w>
ch e▁ck</w>
a▁l k</w>
av ▁e</w>
all et</w>
S chool</w>
M i</w>
Ch u▁ng</w>
B ud
▁un ions</w>
▁re ference</w>
▁n oodles</w>
▁construc ted</w>
▁con g
▁T ea
▁D av
you▁ th</w>
w el▁l</w>
resid enti▁al</w>
op en▁ed</w>
ijeong bu</w>
excell e▁nt</w>
c oll▁
ad d▁
Sp▁ ec
Indus tri▁al</w>
▁notif ication</w>
▁mom entum</w>
▁med al</w>
▁fl u
▁el ements</w>
▁G reat</w>
▁&a▁ pos;s</w>
spec i
se▁ e</w>
ove▁r seas</w>
loc k</w>
ios ity</w>
ing dom</w>
import a▁nt</w>
en c▁ed</w>
em en▁ts</w>
du ty</w>
develop▁ ed</w>
cooper ation</w>
K▁or▁ ea</w>
J oon</w>
Intern at▁ional</w>
&qu ▁o▁t;</w>
▁war ned</w>
▁st artups</w>
▁man power</w>
▁Ye osu</w>
▁Da ewoo</w>
▁Cor p.</w>
si k</w>
rup ted</w>
ma▁ d▁e</w>
il i▁
fir ▁
f ound
app ing</w>
Spec i▁al</w>
5 G</w>
▁week ends</w>
▁sh▁ all</w>
▁pre ven
▁n e
▁fri ed</w>
▁ear n</w>
▁dis charge</w>
▁att or
▁M apo</w>
▁Ac ts</w>
with out</w>
s e▁s</w>
pr▁ ep
or▁ ted</w>
investig▁ ation</w>
h ou▁rs</w>
eph one</w>
dam a▁ge</w>
be t▁ween</w>
atte▁n t▁ion</w>
a os</w>
T our
K o▁r
▁strateg ies</w>
▁observ ed</w>
▁fos tering</w>
▁ch urches</w>
▁U n</w>
▁Som etimes</w>
▁R ed</w>
vi ol▁
ur▁ ing</w>
streng th
pr▁ov ide</w>
proc ed
ic le</w>
er ial</w>
en s▁
b▁l em</w>
ab▁ il▁ity</w>
N o▁rth</w>
Dae▁ gu</w>
5 ,000</w>
3 0th</w>
▁un employment</w>
▁su fficient</w>
▁sh el
▁ass embly</w>
▁2 7
wo▁ ok</w>
u ous</w>
tr ans▁
s▁t ud
s▁ ay</w>
pro j▁
m▁ ost</w>
e▁n sive</w>
exper ▁ts</w>
d▁ ep
contr▁ ol</w>
ches tra</w>
ac▁ ts</w>
S ec▁
2 3rd</w>
▁spea king</w>
▁rum ors</w>
▁mark ed</w>
▁join ing</w>
▁compl icated</w>
▁Presid ential</w>
▁Gang dong</w>
w a▁n</w>
u▁ le</w>
um es</w>
th▁ eir</w>
produ▁c t</w>
f ar▁
ex▁ c
expl ain▁ed</w>
en▁ ti
en ty</w>
bur s
am e▁s</w>
Y eon
H i▁gh</w>
▁system atic</w>
▁six th</w>
▁rest ore</w>
▁an ger</w>
▁Wo ori</w>
▁Song pa</w>
▁Olymp ic</w>
pr▁ ot
os ted</w>
oph y</w>
m on</w>
i▁t al</w>
gener al</w>
fl oor</w>
con tribu
c us▁
S elf</w>
▁so ftware</w>
▁reflec ts</w>
▁per su
▁dis coun
▁crow ded</w>
▁Rep ubl
▁H ist
▁F ederal</w>
ut▁ e</w>
ti ms</w>
n ucle▁ar</w>
m▁ on▁
loc ▁
eri a▁ls</w>
e ously</w>
ch a▁n</w>
ai▁ ls</w>
W ▁h
▁perc eption</w>
▁l ot
▁g ifts</w>
▁conf usion</w>
▁For um</w>
▁Chung nam</w>
p▁er s▁on</w>
pr i▁v
mis si▁on</w>
in su▁r
hist o▁ry</w>
gh▁ t</w>
e▁n ▁
d em▁
c anc▁
Tr ump</w>
B ar
▁w ▁h
▁sol utions</w>
▁sol o</w>
▁sh ock</w>
▁perspec tive</w>
▁n ovel</w>
▁lik es</w>
▁kn owing</w>
▁co al</w>
▁c igar
▁achiev ement</w>
un ch</w>
spe▁ ed</w>
re▁ en</w>
prov id▁ed</w>
fr aid</w>
do▁ or</w>
con di▁
ch air
c er</w>
at ings</w>
▁propos als</w>
▁o x
▁mak eup</w>
▁fr▁ ont</w>
▁fru its</w>
▁extra ordinary</w>
▁destro yed</w>
▁c ute</w>
▁c elebrities</w>
▁advis ory</w>
▁Sh anghai</w>
▁S elf</w>
s▁ is</w>
rec on
m ay▁or</w>
ic▁ ts</w>
con d▁uc
bit r
Comm▁ it▁tee</w>
&a▁p▁os ;▁s</w>
▁short age</w>
▁reg ret</w>
▁arti stic</w>
▁Environ mental</w>
▁D ream</w>
▁200 6</w>
to▁ ur
st ep
r on</w>
r ice</w>
r a▁n
lec ted</w>
f▁ ter</w>
eff e▁ct</w>
S y
H ae</w>
▁spec ies</w>
▁sol ving</w>
▁g all
▁eng age</w>
▁den ied</w>
▁d ress</w>
▁contain er</w>
▁child birth</w>
▁For ce</w>
ur ies</w>
tr av▁
s▁y s▁tem</w>
sti▁ tu
serv ▁ed</w>
r▁ ec▁
pres cri
h ment</w>
g▁ ive</w>
fi▁ ed</w>
ett es</w>
eg ae</w>
ef▁ t</w>
con nec
bui▁l t</w>
b an
an ches</w>
G overnor</w>
Eng lish</w>
Co▁m m
▁shor tly</w>
▁pr ay</w>
▁p ow
▁libr aries</w>
▁a g▁
▁Sup er</w>
▁M an</w>
▁D r.</w>
▁B lo
▁Ad ministrative</w>
t arg
n ia</w>
introduc ▁ed</w>
form ati▁on</w>
do▁ esn</w>
c a▁rs</w>
L and</w>
H er
▁qu ar
▁exc eeding</w>
ul g
ti▁v al</w>
st yle</w>
s pon
r▁ o
r▁ an</w>
requ ir
ref e▁r
prec ed
op eration</w>
m ly</w>
h▁ wa</w>
f▁ er</w>
estab li▁
e ing</w>
C l▁
▁rel ocation</w>
▁ma them
▁led ger</w>
▁deleg ation</w>
▁dea ths</w>
tr illi▁on</w>
s▁ k
suspec t▁ed</w>
ph ys
negoti atio▁ns</w>
m ent
l▁ ast</w>
j▁ oo</w>
fl edg▁ed</w>
f und</w>
ex c▁
es is</w>
d u▁st</w>
F▁ or
▁viol ated</w>
▁tal ented</w>
▁ship ped</w>
▁h ole</w>
▁h asn</w>
▁eas ing</w>
▁dist inc
▁N o
ri d</w>
pre▁ vious</w>
pop ul▁
o▁w er</w>
itt▁ le</w>
h▁ ealth</w>
e▁nt al</w>
b a▁nd</w>
R ec
M an
Dep artme▁nt</w>
B ank</w>
▁rec ession</w>
▁pur sue</w>
▁furn iture</w>
▁for get</w>
▁correc tion</w>
ur g
tr▁ ies</w>
r▁ u
min utes</w>
j un▁g</w>
inter pre
con▁ cer
bi▁ll i▁on</w>
a▁l es</w>
al rea▁dy</w>
St ati▁on</w>
L ib▁
2 2nd</w>
, 5
▁tit led</w>
▁qu iet</w>
▁mov es</w>
▁i s▁
▁g ▁
▁ex istence</w>
▁circ le</w>
▁C SAT</w>
z h
st o▁re</w>
oo ked</w>
mi▁ll i▁on</w>
it ain</w>
ev en▁ts</w>
cit▁ iz
c ent
ad▁ v
additi on▁al</w>
In t▁ern
G im
▁ver ify</w>
▁trea sury</w>
▁t or
▁suspen d</w>
▁reg ularly</w>
▁pen insula</w>
▁m echan
▁des per
▁argu ment</w>
▁ar ▁e</w>
▁W ith
▁S aem
▁Mr .
pl a▁
o ked</w>
im a</w>
g▁ roup</w>
ex erc
ewor thy</w>
ent▁ r
c▁ o
c▁ aus
au th▁
announ c▁
add it▁ional</w>
O K</w>
A n▁
5 3</w>
▁rep ayment</w>
▁off line</w>
▁dec eased</w>
▁d ur
▁col orful</w>
▁cas ualties</w>
▁W ell</w>
▁M aybe</w>
▁&qu ▁o▁t;</w>
ul▁ ture</w>
tak ▁en</w>
pos s▁
ou ts</w>
n i</w>
l ev
im pl▁
h uman</w>
e▁ ff▁
d ivid
cr isis</w>
coun c▁il</w>
confir m▁ed</w>
ak ▁e</w>
S oci▁al</w>
I P</w>
▁slow ly</w>
▁minis tries</w>
▁hop ed</w>
▁H a
▁Br anch</w>
▁20 22</w>
ym nas
progr am</w>
our▁ th</w>
ou ths</w>
ma▁ il</w>
iv ▁er</w>
dec ision</w>
ak en</w>
Ass oci▁
▁st ake</w>
▁phot ograph
▁but ton</w>
▁brea king</w>
▁Jeon nam</w>
▁G en
▁C ard</w>
▁1 20</w>
sup p▁ly</w>
p▁ re
minim ▁um</w>
m oun
ld wide</w>
h▁ an</w>
d▁ el
des i▁gn</w>
dem onstr
c▁ ess</w>
O n
M▁ inis
19 9
▁u ▁
▁semiconduc tors</w>
▁reflec ting</w>
▁neigh bors</w>
▁fil es</w>
▁coll ea
▁c o▁uld</w>
▁bal anced</w>
▁ar gue</w>
▁ac compl
▁H eo</w>
▁G umi</w>
▁3 D</w>
y l
u▁ t
ur ▁ed</w>
tion ally</w>
t ude</w>
se▁ nd</w>
r▁ oom</w>
ot▁ te</w>
lis ▁
de f▁
ag i▁ng</w>
Def en▁se</w>
▁m ine</w>
▁grad uation</w>
▁e n▁
▁break fast</w>
▁S quare</w>
xim ately</w>
w id
ut ation</w>
reg a▁r
p▁er son</w>
on ers</w>
me▁ eting</w>
iv ▁es</w>
it ably</w>
f ic
e▁ et</w>
ev en▁t</w>
ch airpers▁on</w>
bec o▁m
▁transl ation</w>
▁rev eal</w>
▁rel ▁
▁pregn ant</w>
▁m igr
▁m arg
▁ir on</w>
▁instruc tors</w>
▁S illa</w>
▁2 3
un▁ g
tr av
t ments</w>
p▁ar ty</w>
p sych
ow e▁d</w>
ot▁ e</w>
oper ati▁ng</w>
off ee</w>
i▁n to</w>
in spe▁c
ex i▁st
et ti▁ng</w>
av ed</w>
ab b
▁t ot
▁t end</w>
▁sac rif
▁re hab
▁go▁ in▁g</w>
▁el ev
▁d ealing</w>
▁bo oth</w>
▁S e▁
▁L ake</w>
p resident</w>
m▁ obile</w>
m▁ .</w>
mat ters</w>
m emor
l▁ aw
i▁c k</w>
ac ti▁ng</w>
Y a▁ng</w>
▁restruc turing</w>
▁immedi ate</w>
▁identi fication</w>
s▁ tr▁
os h
in tro▁
if▁ ic
i efs</w>
h oon</w>
di▁ n▁g</w>
comm ission
ar ▁t</w>
▁sc ulp
▁leg s</w>
▁h ire</w>
▁col onial</w>
▁Bel g
▁200 5</w>
s o▁ng</w>
reg i▁on</w>
pas s▁ed</w>
over ing</w>
on o▁my</w>
mark e▁t</w>
m uc▁h</w>
l at
h yeon</w>
estab l
est ors</w>
ef▁f o▁rts</w>
ea▁ st</w>
e ye</w>
d ur
ass oci
D aej
▁valu able</w>
▁sign al</w>
▁s ugar</w>
▁ob st
▁m ent
▁diagnos ed</w>
▁correspon ding</w>
▁bo xes</w>
▁advis ed</w>
▁accommod ation</w>
▁Sch ol
▁Buddh a</w>
▁Am bassador</w>
ul ates</w>
ta in▁
str ong</w>
se e▁ms</w>
r i▁ce</w>
publ i▁c</w>
pen ed</w>
om berg</w>
k l
itt▁ en</w>
in▁ come</w>
g▁row th</w>
augur ation</w>
Sam sung</w>
Oper ati▁on</w>
1 2▁
▁un clear</w>
▁th i▁nk</w>
▁succ eed</w>
▁revital ization</w>
▁ph ilos
▁l iber
▁gu ys</w>
▁don ations</w>
▁dem anding</w>
▁def icit</w>
▁conc rete</w>
▁Ye ouido</w>
▁Tur kish</w>
▁Particip ants</w>
▁Inspec tion</w>
ugg age</w>
tr ade</w>
si t▁e</w>
pl ic
oll ywood</w>
ne▁ ws</w>
n ear</w>
ket ball</w>
iz ure</w>
frastruc tu▁re</w>
e▁n ing</w>
a▁p p▁
S oon</w>
Pres▁ iden▁t</w>
C u▁l
▁pos ts</w>
▁ordin ances</w>
▁m on▁
▁in ner</w>
▁c able</w>
▁busin ess
▁Ar gent
s un
or able</w>
of▁ f</w>
i▁s ter</w>
e z</w>
cl ub</w>
ch ec
a▁ us▁e</w>
ang ▁e</w>
anc ement</w>
G od</w>
▁op tion</w>
▁k eeps</w>
▁f at</w>
▁b oss</w>
▁acc es
▁Elec tion</w>
▁D aily</w>
w ri▁
un ded</w>
st an</w>
sec tion</w>
p▁l ease</w>
ow in▁g</w>
il▁l egal</w>
e▁n dly</w>
expen s▁es</w>
execu ti▁ve</w>
ett e▁r</w>
bec ome</w>
an▁ ces</w>
Sept emb▁er</w>
▁earn ings</w>
▁ch at</w>
▁ac knowl
v arious</w>
tr ust</w>
sing le</w>
s af
o▁ i</w>
n ic</w>
mark ets</w>
iqu es</w>
i o
dec rea
c ro
at▁ t
am i</w>
aes ong</w>
Econom ▁ic</w>
▁us eful</w>
▁stom ach</w>
▁n eck</w>
▁im pris
▁hom epage</w>
▁ch em
▁S us
▁S im
▁Reg ulations</w>
▁I m</w>
t ou▁r
str ateg
pers ons</w>
par t▁y</w>
or mit
or i▁g
oc ket</w>
o on
le▁ ading</w>
jec t▁s</w>
in fl▁
e▁n e</w>
es p
ch o
b at
S cien▁ce</w>
R o▁
▁s and
▁pass port</w>
▁impres sion</w>
▁KOS PI</w>
▁Eng ineering</w>
y m</w>
view ers</w>
v ▁es</w>
ti n</w>
shar i▁ng</w>
om ▁e</w>
id arity</w>
esti▁ g
c▁ ame</w>
bu▁ d
Y e▁
Pol i▁cy</w>
M ov
H ouse</w>
D▁ ae</w>
A ▁h
▁op tim
▁norm ally</w>
▁j u
▁gu ilty</w>
▁fin als</w>
▁dismis sal</w>
▁deleg ated</w>
▁Prosec utor</w>
▁F C</w>
▁B o</w>
▁3 9</w>
yr ics</w>
ul n
s ud
po▁l icy</w>
org a▁n
op pi▁ng</w>
iz a▁tion</w>
int▁er▁ est</w>
gh ts</w>
fi el
e ff▁
a▁ir s</w>
ar▁ d
201 3</w>
▁p ip
▁minim ize</w>
▁larg ely</w>
▁exchang ed</w>
▁consult ations</w>
▁competi tions</w>
▁attemp t</w>
▁C N
og an</w>
ob ong</w>
n ational</w>
fl o
a▁ ff
ac ti▁on</w>
▁r iding</w>
▁mo thers</w>
▁fl oo
▁en ters</w>
▁em otions</w>
▁coun ter</w>
▁conn ect</w>
▁V is
▁P res
▁Comp anies</w>
▁5 0,000</w>
vis iti▁ng</w>
th ▁s</w>
stor es</w>
sec▁ urity</w>
rais i▁ng</w>
olog ic▁al</w>
k▁ i</w>
in i▁ng</w>
el▁ fare</w>
d ir▁
an tial</w>
T ai
M▁ in▁
▁w ou▁ld</w>
▁not eworthy</w>
▁i l</w>
▁gr ound
▁g as
▁autom obile</w>
▁Per iod</w>
spe▁ cial</w>
per i
n ati▁onal</w>
m un</w>
lif ▁e</w>
illing ness</w>
i ances</w>
e▁as y</w>
end ers</w>
d eok</w>
c y
bu▁ s
anc er</w>
an ymore</w>
an oth▁er</w>
aftern o▁on</w>
▁vess els</w>
▁sex ually</w>
▁remov al</w>
▁recon struction</w>
▁equ ality</w>
▁collabor ation</w>
▁Hy ung</w>
▁Cl ub</w>
▁4 8</w>
t▁ ors</w>
r▁ ole</w>
professi on▁al</w>
po▁ s▁
p op▁
oper at▁ed</w>
fa▁ ir</w>
ea st</w>
c and▁
bri ef
M yung</w>
D em▁
Ch airpers▁on</w>
Ad minis
▁sub contrac
▁h orse</w>
▁design s</w>
▁Ex cuse</w>
un gri</w>
sp re▁ad</w>
r▁ ight</w>
re▁ su▁l
o b▁er</w>
long ed</w>
impo▁r tant</w>
if ier</w>
ho▁ l▁d</w>
facil i▁ty</w>
b udg
accor dan▁ce</w>
a ju</w>
▁uni form</w>
▁t ough</w>
▁sav ed</w>
▁r ises</w>
▁purch ases</w>
▁pro ve</w>
▁pos ting</w>
▁pas ses</w>
▁f are</w>
▁ch ronic</w>
ti m</w>
th or
sti ll</w>
ph o▁to</w>
j o▁on</w>
iz za</w>
ir able</w>
eti me</w>
ea▁ l
ang yo</w>
M y
▁th ick</w>
▁t ight</w>
▁stat ue</w>
▁inf ants</w>
▁en v
ul a▁r</w>
tr i▁
play e▁rs</w>
pl ant</w>
ke▁ ep</w>
issu▁ es</w>
evalu ati▁on</w>
en▁ ded</w>
del iver
d e▁rs</w>
com▁p any</w>
P S</w>
J a▁e</w>
F or▁
Bl ue</w>
▁ten sion</w>
▁sugg est</w>
▁st ands</w>
▁pen ding</w>
▁loc ations</w>
▁hand led</w>
▁en ds</w>
▁dep ends</w>
▁c iting</w>
▁apolog ize</w>
▁an c
▁ag gres
▁U. N.</w>
▁Th eater</w>
▁B rexit</w>
w▁ an▁t</w>
sh a▁re</w>
s anc
press way</w>
loo ki▁ng</w>
l ig▁ht</w>
e▁ar ch</w>
d▁ it</w>
d▁ er
ad mi▁n
K T</w>
Jap a▁n
▁vis ible</w>
▁politici ans</w>
▁or g
▁oppon ent</w>
▁o ff▁
▁des k</w>
▁T ell</w>
▁Sh ould</w>
▁S il
▁J ongno</w>
▁J am
▁B ol
▁B it
▁20 0,000</w>
un▁ der</w>
tr ical</w>
road cas
rec e▁nt</w>
pre h
ow ned</w>
i▁d ent</w>
dr ama</w>
ac ti▁v
S▁e ou▁l</w>
O S</w>
Amer ic▁an</w>
7 5</w>
▁prim ary</w>
▁man ual</w>
▁inter views</w>
▁flo ors</w>
▁fac ilit
▁cons ol
▁Enter tainment</w>
▁Candid ate</w>
▁20 ▁
v▁ al
t ex
ou t▁
l▁ ess</w>
is ms</w>
gover▁n me▁nt</w>
et es</w>
ee th</w>
c old</w>
at eful</w>
S eptember</w>
P▁ ro
Lea g▁ue</w>
J oo</w>
Ch in▁a</w>
2 n▁d</w>
1 0▁
▁s i▁nce</w>
▁pass age</w>
▁dis mant
▁cou ples</w>
▁claim ing</w>
▁chea per</w>
u it</w>
t yp
su▁r es</w>
n oc
is ▁e</w>
ex pl▁
differ ent</w>
conv en▁
ant a</w>
A ▁u
▁r ains</w>
▁immigr ants</w>
▁f ewer</w>
▁exc eeds</w>
▁d um
▁c rew</w>
▁a ro
v ▁ed</w>
som ▁e</w>
s afe</w>
poin ts</w>
pl▁ ay
o ing</w>
inc re▁
h and</w>
gr a▁
fam iliar</w>
e th
du▁ ced</w>
a▁b ou▁t</w>
T O</w>
O P</w>
M A</w>
&apos; m</w>
▁rehab ilitation</w>
▁o ve▁r</w>
▁b ill
▁acc ept
▁T ake</w>
▁Swed en</w>
w▁ a</w>
wh er▁e</w>
we▁l fare</w>
s ports</w>
pre▁ s
p rivate</w>
fa▁m ily</w>
e▁ al</w>
d▁ ays</w>
cand i▁d
b ar
at▁ h
ap▁ p
N a</w>
J anu
▁r atings</w>
▁max im
▁legisl ative</w>
▁extrem ely</w>
▁conn ecting</w>
▁c oin
▁atten d
▁amoun ts</w>
▁G e
▁Comp etition</w>
wh▁ eth▁er</w>
s ay▁ing</w>
p▁ol▁ icy</w>
pro▁ ject</w>
po▁r ts</w>
op port▁
j a▁e</w>
f a▁ct</w>
ec▁h n
di▁ ed</w>
ar ch
al ities</w>
Inv est
. m▁.</w>
▁juven ile</w>
▁dis pos
▁con gl
▁br anches</w>
▁W at
▁T est</w>
▁M anch
u▁n de▁r</w>
sch oo▁ls</w>
m▁ p
mat h</w>
li▁ st</w>
k▁ ind</w>
increa se</w>
h▁ yun</w>
fem a▁le</w>
ec tions</w>
con tro▁
Or dinance</w>
Dem oc▁ratic</w>
Ch airman</w>
A cc
▁t end
▁stor ed</w>
▁peti tions</w>
▁par ent</w>
▁mill ions</w>
▁fr ustr
▁dr inks</w>
▁dang er</w>
▁ban king</w>
▁ar en</w>
▁U l
with in</w>
u▁n ity</w>
t el
resid ent▁s</w>
r ors</w>
or▁ ity</w>
op▁ ment</w>
f av▁
e▁ w
e▁ ed</w>
es th
di e</w>
develo▁p m▁ent</w>
cap it▁al</w>
M ark
5 ▁th</w>
▁p edestr
▁d e</w>
▁W inter</w>
▁Pl an</w>
pur po▁se</w>
pa▁ ss</w>
me▁m b▁ers</w>
ma▁r k</w>
l▁ik▁ ely</w>
i▁st▁ ry</w>
ez uel
establis hme▁nt</w>
er ty</w>
cons ul
b▁ um</w>
Na▁ tional</w>
Gy▁eong gi</w>
D es
▁issu ing</w>
▁conf ident</w>
▁al on▁g</w>
und ae</w>
t▁ ant</w>
ti o▁n
s▁ ome</w>
re▁g ular</w>
p y▁o</w>
om▁ an</w>
ins egae</w>
en▁ ess</w>
con vers
ap yeong</w>
am ent</w>
ag ue</w>
ab o▁r</w>
Je o▁ng</w>
▁with draw</w>
▁u ally</w>
▁med iation</w>
▁f eared</w>
▁T or
▁Kum ho</w>
▁G ye
▁For tunately</w>
▁Auth ority</w>
w▁ ays</w>
s▁ elf</w>
rea s
p▁ res
p ack
ou▁ s
ok do</w>
lea▁ st</w>
l ands</w>
k a</w>
id en▁ts</w>
form ing</w>
de▁ m
devel▁ op
con secu
a▁r k</w>
St ates</w>
; d</w>
4 1</w>
&▁ap▁os ;t</w>
▁r ow</w>
▁pat terns</w>
▁evac u
▁di versi
▁character istic</w>
▁b anned</w>
▁attemp ted</w>
▁O p
▁D et
▁C redit</w>
▁C amp
▁Blo omberg</w>
ye▁ ars</w>
p▁l eas▁e</w>
mob i▁le</w>
ins eng</w>
g ove▁rn
e▁conom ic</w>
expl ained</w>
chil d
ag en▁cy</w>
B a▁
Ar ticle</w>
▁wel come</w>
▁wea pon</w>
▁tri als</w>
▁tel ephone</w>
▁strugg le</w>
▁sp ir
▁sett le</w>
▁res ignation</w>
▁h ub</w>
▁form al</w>
▁ch emical</w>
w ar▁d</w>
ut e▁s</w>
th▁ od</w>
t t
si▁ ze</w>
s ingly</w>
ri ous</w>
res ▁p
pos i▁
ow ners</w>
om m▁
ob ▁s</w>
institu tio▁ns</w>
il▁l i▁on</w>
ess e▁s</w>
ch▁ an</w>
ca▁ st</w>
c elebr
an t▁
allig raph
P o
▁w ouldn</w>
▁vir tual</w>
▁th e▁y</w>
▁res ume</w>
▁neighbor ing</w>
▁int ellectual</w>
▁bur ned</w>
▁P or
▁Jeon buk</w>
▁E un
▁20 00</w>
sub je▁ct</w>
str eam</w>
pa▁r ty</w>
par ents</w>
mat eria▁ls</w>
is▁ h</w>
high e▁st</w>
comp▁an i▁es</w>
c a▁rd</w>
a▁ r▁
ap art
Sh in
▁w ashing</w>
▁urg ently</w>
▁st ro
▁renew able</w>
▁decrea sing</w>
▁b id</w>
▁W all</w>
▁Ass et</w>
t▁ en
s▁ al
sh or
os t
on to</w>
l t;</w>
h▁ erein
fl u
en▁ ted</w>
avoid able</w>
ai▁ gn</w>
S ▁u
Or din▁
Con struc
Con f
▁vir tually</w>
▁sugg ests</w>
▁p anel</w>
▁mov ements</w>
▁lea ked</w>
▁fre e
▁decl ined</w>
▁O k
▁L eg
▁K inderg
▁H appy</w>
▁G M</w>
▁Con s
▁5 0
▁ atio▁n</w>
ve▁ h
s oo▁n</w>
s ea▁
of▁f ice</w>
m▁ i</w>
m yung</w>
j oo▁n</w>
i▁ ving</w>
investig▁ atio▁n</w>
est a▁te</w>
em atic</w>
contin u▁ed</w>
ai▁ l</w>
R oh</w>
Ko▁ re
Indus t▁ry</w>
Comm itte▁e</w>
▁u tive</w>
▁serv er</w>
▁ass istant</w>
▁U ijeongbu</w>
▁ ti▁on</w>
und ang</w>
tr an▁s
op p
om bs</w>
m▁ aking</w>
ir e▁ct</w>
inv es▁t
implem ent
h▁ ope</w>
h igh▁er</w>
fr i▁
cl ock</w>
ar▁ ts</w>
Y u</w>
En▁g lish</w>
E stablis
Administr ati▁on</w>
▁un likely</w>
▁st ating</w>
▁requ esting</w>
▁pl ate</w>
▁exam ples</w>
▁b en
▁any where</w>
▁L ater</w>
▁Arab ia</w>
um a</w>
s ep
qu es▁
prais al</w>
lo ad</w>
increa si▁ng</w>
in struc
im u▁m</w>
h ak</w>
em ▁ed</w>
comp▁ any</w>
a▁m ong</w>
aver a▁ge</w>
J os
5 1</w>
▁hom etown</w>
▁K BS</w>
▁2 4
u t▁ion</w>
per f
m yeong</w>
i w
h igh▁
h a▁r
g as</w>
e▁n ed</w>
exp e▁ct▁ed</w>
em ployees</w>
d im
c▁ le</w>
cus t▁om
cont▁ in
F o▁od</w>
A▁h n</w>
&ap▁os;▁ re</w>
▁tr a
▁subst ances</w>
▁s ustainable</w>
▁rad io</w>
▁grow s</w>
▁cr u
▁ch eering</w>
▁attrac tion</w>
▁US D</w>
▁Represent atives</w>
▁Pri or</w>
▁M yeong</w>
▁M E
▁D e
▁Ch ae</w>
s tic
ri e▁d</w>
och ang</w>
n▁um ber</w>
m▁ any</w>
i▁s s▁
it a▁l</w>
improv eme▁nt</w>
iev ed</w>
fun ds</w>
e▁v ent</w>
dr am
ad o</w>
W a</w>
D ec▁
▁s essions</w>
▁objec tion</w>
▁hop es</w>
▁const ant</w>
▁3 00,000</w>
w ife</w>
v▁ er</w>
sur v
sh owi▁ng</w>
ro ads</w>
ocol ate</w>
m▁ eans</w>
gl i▁sh</w>
g t;</w>
g rou▁ps</w>
f act</w>
ch u▁l</w>
b▁ ro
b▁ et▁ter</w>
be▁ li
ber ty</w>
aw a</w>
O ne</w>
O c▁
L ife</w>
&a pos▁;
▁interpre tation</w>
▁Y e</w>
w in▁
requ ▁
regar di▁ng</w>
r id
ocr▁ atic</w>
lo▁ c
ge▁t ting</w>
et o</w>
consid er
O C</w>
▁trad ition</w>
▁pas tor</w>
▁or dering</w>
▁mid st</w>
▁law yers</w>
▁laun ching</w>
▁inev itably</w>
▁bid ding</w>
▁b o▁
▁attrac tive</w>
▁O s
▁E as
▁2 9
sa▁ f
is▁ is</w>
gl obal</w>
c▁ r▁ea
critici z▁ed</w>
con stitu
b rea▁
ast al</w>
Q u
I C</w>
H A
A ugust</w>
, ▁0
▁w illingness</w>
▁rea ching</w>
▁per mit</w>
▁f er
▁a fraid</w>
▁Taek wondo</w>
▁Stand ards</w>
▁Res ources</w>
▁L ibrary</w>
▁J ob</w>
▁C o.</w>
vid eo</w>
us ive</w>
t▁h y</w>
ta i▁n</w>
sp ea
sec urity</w>
m ember</w>
j oint</w>
d in▁gs</w>
cl e▁ar</w>
b▁ u▁t</w>
a▁c tive</w>
at ell
as tically</w>
a .▁m.</w>
I D</w>
H ak</w>
▁tr an
▁l uggage</w>
▁i Phone</w>
▁democr acy</w>
▁&apos; t</w>
ve h▁
v al</w>
tu▁r n</w>
tic▁ le</w>
th▁ a▁n</w>
prov i▁ncial</w>
pe▁ ri
osp el</w>
on li▁ne</w>
k▁ n
i▁ll▁ ion</w>
gover▁n m▁ent</w>
etw ork</w>
et ely</w>
en▁ tly</w>
applic ati▁on</w>
al▁ f</w>
ac t▁or</w>
Techn olo▁gy</w>
Offic ▁e</w>
I s</w>
Comm issi▁on</w>
8 8</w>
▁tri ps</w>
▁step ped</w>
▁sh eet</w>
▁ob ject</w>
▁inv ent
▁N A
▁Investig ation</w>
▁Bur eau</w>
▁ ement</w>
v▁ er
ul ty</w>
transport ati▁on</w>
tra ff▁ic</w>
the▁ se</w>
rup t</w>
prin ci
m▁on th</w>
m ail</w>
is▁h ed</w>
is t▁s</w>
ic ▁t</w>
hear t</w>
eval u▁
Se ok</w>
L ot▁te</w>
▁s an
▁reorganiz ation</w>
▁exemp ted</w>
▁eg gs</w>
▁acc eler
▁Sec ond</w>
▁P acific</w>
▁4 2</w>
ye e▁s</w>
wh▁ et▁her</w>
s▁y st▁em</w>
retur n▁ed</w>
pro mo
pos t
person n▁el</w>
o▁p ment</w>
on▁ ic</w>
od a</w>
m ag
i▁ ence</w>
it ude</w>
ir▁ st</w>
f ee</w>
elec tions</w>
c▁ annot</w>
con d▁
c ut</w>
a▁t t
au▁ lt</w>
J o▁ng</w>
C C
5 7</w>
&ap▁os; t</w>
▁wors ening</w>
▁underst ood</w>
▁subsid ized</w>
▁spons ored</w>
▁respon ses</w>
▁res ource</w>
▁per i
▁crea tes</w>
▁compens ate</w>
▁ch air</w>
▁ar bitr
▁U pon</w>
▁Jin ping</w>
▁B ang
▁3 0,000</w>
w oo▁k</w>
s▁c ale</w>
ser▁ vice</w>
sc ene</w>
red u▁ce</w>
presid e▁ntial</w>
ot ers</w>
or ders</w>
m▁ar▁ ket</w>
l ost</w>
itiv ely</w>
ie▁ ve</w>
di▁ d</w>
ch e▁rs</w>
b▁e▁ come</w>
b oy
ann o▁un
acc ident</w>
Li▁ berty</w>
Ch i▁ef</w>
▁nerv ous</w>
▁neglig ence</w>
▁m yst
▁ch ain</w>
▁cal m</w>
▁Rev olution</w>
▁Par tic
▁Lea der</w>
▁4 3</w>
u▁n g
ul ▁es</w>
tif ication</w>
ta▁ ge</w>
s▁ ite</w>
ro o▁m</w>
prosecu ti▁on</w>
pr o▁t
pos ure</w>
n ▁s</w>
med i▁
m en
is ti▁cs</w>
fam o▁us</w>
exi▁st ing</w>
com pens
b ery</w>
azak h
ai▁n ing</w>
P op</w>
N A</w>
E con
5 6</w>
▁st ops</w>
▁p ig
▁fl uctu
▁ed ge</w>
▁bu yer</w>
▁Conf ederation</w>
w▁ een</w>
win ni▁ng</w>
s▁ im
m ine</w>
m an▁y</w>
gu k</w>
elec om</w>
c▁ or
be▁ fore</w>
Min i▁st▁ry</w>
G ove▁rn
▁wh i▁le</w>
▁un avoidable</w>
▁s is
▁met al</w>
▁inten se</w>
▁equ al</w>
▁cam eras</w>
▁br inging</w>
▁b oom</w>
▁An gel
vill a▁ge</w>
u▁r ity</w>
sh o▁rt</w>
pr▁ od
on▁ gs</w>
d▁ uring</w>
a▁mp ;</w>
ar ely</w>
Associ atio▁n</w>
& q▁u▁ot;</w>
▁th r
▁ra ises</w>
▁prohib ited</w>
▁mag azine</w>
▁l on
▁gen re</w>
▁fr ame</w>
▁fi re
▁decor ated</w>
▁confron tation</w>
▁com ▁
▁c au
▁b ank
▁ar ch
▁N ak
▁D oc
z o</w>
w▁it h▁in</w>
tion ary</w>
th i▁nk</w>
play ▁er</w>
op▁ er
o T</w>
l ow▁er</w>
c our▁
ar▁ ound</w>
ar i▁ng</w>
B A</w>
5 8</w>
▁t ools</w>
▁r o▁
▁ph armaceutical</w>
▁mach ines</w>
the▁ me</w>
ter ies</w>
so▁ cial</w>
se▁ veral</w>
pr▁o duct</w>
probl ems</w>
perfor▁m a▁nce</w>
partic▁ip▁ ate</w>
mea▁ su▁res</w>
l▁ ead</w>
i▁ ew</w>
in t▁o</w>
hav i▁ng</w>
g iv▁en</w>
esti ons</w>
eff ect</w>
ee▁ p</w>
der▁ ly</w>
comp an▁y</w>
ar riv
Un i▁
O ctober</w>
M al
L ED</w>
▁y ea▁rs</w>
▁stea dy</w>
▁star tup</w>
▁pro longed</w>
▁or ganic</w>
▁fres h
▁fin alized</w>
▁Con sumer</w>
str en▁g
sl etter</w>
otten ham</w>
m▁ ents</w>
it o▁rs</w>
ic▁ ial</w>
fri e▁ndly</w>
F u▁nd</w>
▁s par
▁res istance</w>
▁l ending</w>
▁S a
stat▁ us</w>
re▁ v
p etr
m ye▁on</w>
k eep</w>
etropo▁l itan</w>
enc i▁es</w>
ec tors</w>
e ffic
dro p</w>
c▁l os
bo▁r n</w>
bo a▁rd</w>
a▁r i▁
a▁l ways</w>
am en</w>
aft▁ e▁r</w>
C en▁ter</w>
▁s ells</w>
▁produc ers</w>
▁l od
▁for g
▁dis tribute</w>
▁D oo</w>
trad it▁ional</w>
pr ic▁ed</w>
pers▁ on
m i▁d
m em
ill er</w>
ial ▁s</w>
fort unately</w>
fail ▁ed</w>
e▁ k</w>
di a</w>
d ney</w>
ch em
ap es</w>
L ab▁or</w>
D S</w>
▁war eh
▁thous and</w>
▁t aught</w>
▁pre d
▁l o▁
▁grand mother</w>
▁firef ighters</w>
▁aspec ts</w>
▁Sh insegae</w>
w▁ ould</w>
ti▁ ms</w>
sched ul▁ed</w>
n eg▁
it ter</w>
f oo▁d</w>
d e▁r
d ed
comp etition</w>
ali for
D on
▁y o▁u</w>
▁telecomm unication</w>
▁r igh▁t</w>
▁pres erve</w>
▁in sp
▁hea ted</w>
▁compl ained</w>
▁a d▁
▁T w
▁Stud ies</w>
▁Indones ian</w>
y angju</w>
vi ation</w>
s ens
pro▁ c
pl a▁n</w>
oph is
me▁m bers</w>
join▁ ed</w>
ic tion</w>
econ▁ omic</w>
ea▁ sy</w>
coun sel
commission ▁ed</w>
az y</w>
ar row
am in</w>
ack et</w>
En forceme▁nt</w>
2 3
. &apos;</w>
▁w rap
▁sup porters</w>
▁ship building</w>
▁re wards</w>
▁qu arters</w>
▁p eac
▁n eve▁r</w>
▁immigr ation</w>
▁expres sing</w>
▁experi encing</w>
▁cons isting</w>
▁ch ances</w>
▁Ven ezuel
▁P anmunj
▁F ive</w>
▁Cap ital</w>
v▁ ice</w>
it er</w>
ind u▁
e▁r al</w>
dis crimin
dam age</w>
c ould</w>
an tic</w>
R A</w>
Presi▁d ent</w>
Pol i▁ce</w>
,0 00
▁tal ents</w>
▁ret ail</w>
▁n ations</w>
▁l angu
▁increa singly</w>
▁h a▁s</w>
▁finis hing</w>
▁fair ness</w>
▁discharg ed</w>
▁Tr aining</w>
▁Partic ularly</w>
▁Bi o
un i▁
t om▁
s ex</w>
p▁ ower</w>
p eace</w>
oun g
og n▁
off i▁c
m ate</w>
l eep</w>
iz z
gi ene</w>
f▁ ore</w>
fee▁ l</w>
even th</w>
communic ati▁on</w>
ch▁ eon</w>
acc ou▁n
P CO</w>
In ter
G eum
A E</w>
▁w e▁ll</w>
▁pr ide</w>
▁flav or</w>
▁P rem
▁Han jin</w>
▁Br itain</w>
v ices</w>
u ff</w>
u a▁l</w>
st ern</w>
r at▁e</w>
prof it</w>
ow▁ n
os a</w>
op▁ in
n e▁c
m ain▁
l a▁ck</w>
govern men▁t</w>
fe▁ ll</w>
c▁ hed</w>
comp▁ anies</w>
ch▁ ange</w>
chil d▁ren</w>
ch eck</w>
a▁c c
ap▁ er</w>
Prov ide▁d</w>
Intern▁ et</w>
&a▁p▁os ;m</w>
▁p ill
▁inv esting</w>
▁guarant eed</w>
▁f i▁rst</w>
▁Gu ard</w>
y▁ er</w>
vehic l▁es</w>
t▁ ow
sa▁ le</w>
rup ti▁on</w>
o▁u th</w>
meas ure</w>
l iving</w>
h▁ igh</w>
f un</w>
f our▁th</w>
ec▁ te▁d</w>
c▁ an▁
con f▁ir
cau g▁ht</w>
b▁ udget</w>
amp s</w>
air▁ man</w>
ail ing</w>
Su w▁on</w>
Elec tr▁
6 3</w>
201 2</w>
▁w eb</w>
▁trav el
▁sub mission</w>
▁publ ication</w>
▁phot ograp
▁le g</w>
▁attor ney</w>
t otal</w>
respon▁ se</w>
res tric
progr a▁ms</w>
ph oto</w>
og▁ n
i▁ sion</w>
h▁erein aft▁er</w>
enti onal</w>
ear ning</w>
ea c▁h</w>
e ve</w>
der ful</w>
crea t▁ed</w>
commer ci
c el</w>
ac▁ k
ab ou▁t</w>
▁y e▁ars</w>
▁schol ars</w>
▁res ulted</w>
▁refug ee</w>
▁har der</w>
▁dis ▁
▁c ast</w>
▁D MZ</w>
ut▁ ure</w>
us ▁es</w>
tic es</w>
sy s▁tem</w>
s n
pr i▁
pr ac▁
hos ▁p
con tract</w>
compl et▁ed</w>
circ umst
b▁ ased</w>
bus in▁
and a</w>
F ebru
A ir</w>
&a▁po▁s ;▁s</w>
▁tr uly</w>
▁targ eting</w>
▁t astes</w>
▁sl ump</w>
▁re tr
▁psych ological</w>
▁n ights</w>
▁mas k</w>
▁consult ative</w>
▁c art
▁Se o▁ul</w>
▁O ver</w>
▁M O
▁K wak</w>
▁Fr amework</w>
yst e▁m</w>
w alk</w>
ust me▁nt</w>
s am▁e</w>
ris k</w>
ri a</w>
r is▁
m iddle</w>
j u▁
er i▁es</w>
at us</w>
S afe▁ty</w>
▁t esting</w>
▁in land</w>
▁hea tw
▁dep end
▁dec isions</w>
▁chec ks</w>
▁b e▁
▁a p▁
▁U U</w>
▁Pre vention</w>
▁Offic er</w>
▁M il
▁D a</w>
▁&▁ a
us▁ ing</w>
su▁l a</w>
sid er</w>
sh▁ ot</w>
ilat eral</w>
h appy</w>
g ames</w>
c▁ ut</w>
cr▁ ea
a▁c tion</w>
aw ing</w>
acc ep
a el</w>
M oo▁n</w>
M C</w>
E C</w>
A▁r ti▁cle</w>
& amp▁;</w>
▁under way</w>
▁t ens</w>
▁surv ival</w>
▁sup er</w>
▁shou lder</w>
▁se izure</w>
▁ow nership</w>
▁k m</w>
▁inter ven
▁deteri or
▁det ention</w>
▁T ower</w>
▁Sh ip
▁Rev iew</w>
▁KOS DAQ</w>
▁G ov.</w>
▁Ex pressway</w>
us e▁d</w>
son nel</w>
sh a▁r
j un</w>
it cher</w>
insur an▁ce</w>
inst all
fin ancial</w>
f igh
el ▁s</w>
c ot
aud▁ it</w>
ar ts</w>
N▁ o.</w>
In stitute</w>
H o</w>
F i▁n
E co▁n
A g▁
▁th a▁n</w>
▁succ ession</w>
▁str ict</w>
▁l isting</w>
▁e ▁
▁att ach</w>
▁arriv al</w>
▁S BS</w>
▁B er
v▁ en
vol un
un s</w>
t e
sum ▁
r▁ ights</w>
p ub▁lic</w>
ox ide</w>
in ni▁ng</w>
i an▁ce</w>
f▁ ar</w>
ans w
P o▁l
8 ▁th</w>
▁taxpay er</w>
▁s ought</w>
▁n etizens</w>
▁m eets</w>
▁disp atch</w>
▁appro pri
▁affili ates</w>
▁Manag er</w>
▁Ex hibition</w>
▁Austral ian</w>
y ang
um▁ p</w>
t g
sta▁ ff</w>
r an▁ge</w>
pr▁o j▁ect</w>
o▁ ff▁ice</w>
ot▁ h
leg ▁al</w>
it ory</w>
i king</w>
ev i▁d
em p▁
d a
c▁ ri
corp▁or ate</w>
constru▁c tion</w>
con t▁r
ch airper
c entr▁al</w>
ann ers</w>
ad a</w>
V ill
S ol
5 9</w>
&a▁ po▁s▁
▁sh ift</w>
▁p up
▁exc ited</w>
▁W ol
▁T our</w>
▁P ay</w>
▁M emor
▁Kak a
▁4 1</w>
um p
t▁h er▁e</w>
tal ks</w>
ou▁ ght</w>
l▁ iving</w>
l▁ arge</w>
g a</w>
fu▁ nd</w>
elec tr
cour se</w>
con fi▁r
a▁ ds</w>
ap artme▁nt</w>
L og
▁t ab
▁mot or</w>
▁in auguration</w>
▁bir ds</w>
▁bath room</w>
▁autom atic</w>
ye▁ ong</w>
y an▁g</w>
wr itt▁en</w>
t▁ ro
s▁ h▁
s k</w>
pos▁ al</w>
oc▁ k</w>
i▁ c▁h</w>
he▁ at</w>
g ung</w>
f ers</w>
eas ures</w>
d oll
In c▁heon</w>
▁wh▁ ere</w>
▁sew age</w>
▁sear ching</w>
▁invest or</w>
▁im position</w>
▁hear ts</w>
▁di esel</w>
▁boo ths</w>
▁ab or
▁Trans portation</w>
▁Chung buk</w>
▁An yang</w>
ven ue</w>
jo▁ in</w>
in conven
i u▁m</w>
hy up</w>
fo▁ ll
cr ime</w>
bus i▁n
St ud
▁writ ers</w>
▁proc esses</w>
▁ob jects</w>
▁networ ks</w>
▁n ▁
▁n ob
▁integr ation</w>
▁foot age</w>
▁fl ood</w>
▁day time</w>
▁clou ds</w>
▁ch e▁ck</w>
▁L ord</w>
u is
su ally</w>
res u▁lt</w>
pon se</w>
p u▁sh</w>
n eeded</w>
m un
m ach
li ance</w>
in▁ ation</w>
if i▁c
here i▁n
h ea▁r
ess ly</w>
ell ed</w>
d▁ ro
d ang
b▁ eg
b ong</w>
Th ere</w>
L e▁
Elec tron
▁pre ference</w>
▁out lets</w>
▁langu ages</w>
▁har mon
▁g am
▁depar ture</w>
▁clin ical</w>
▁ch art</w>
w elfare</w>
w at▁
tin ue</w>
re fl
produc ▁ed</w>
pro jec▁t</w>
pro bl▁em</w>
on als</w>
off▁ ic
m▁ark ▁et</w>
lim ited</w>
k ets</w>
ir o</w>
f ul
d ow▁n</w>
comm i▁t
a▁m p</w>
P ublic</w>
C O
▁s id
▁pr aised</w>
▁person ally</w>
▁manip ulation</w>
▁l ighting</w>
▁c a▁
▁bur d
▁Ind eed</w>
▁F u
▁Dong daemun</w>
w a
v▁ ir
vi e▁w</w>
veh ic▁le</w>
v ent
ul s
stud e▁nt</w>
sh in</w>
prom ise</w>
pre v▁
loc ated</w>
i a
h o▁s
fri ends</w>
def en▁se</w>
d on▁
ch ▁ul</w>
c iti▁
atten ded</w>
P▁ ublic</w>
M ot
M S</w>
Institu t▁e</w>
;▁ m</w>
10 ▁th</w>
▁sp ots</w>
▁represent ing</w>
▁inj uries</w>
▁cons ci
▁b e▁g
▁abol ition</w>
▁Ch e
▁4 4</w>
w or▁th</w>
t y
shar ehol
reg ul▁
par t▁
o▁ s▁
m as
lear ni▁ng</w>
langu a▁ge</w>
fin ite</w>
el i▁ng</w>
d ai▁ly</w>
con d
beco▁m ▁e</w>
aw ar
at▁ eg
J ang
A▁r t</w>
Am eric
, 500</w>
▁threa tened</w>
▁t eeth</w>
▁scienti fic</w>
▁pun ished</w>
▁p apers</w>
▁m alls</w>
▁en coun
▁communic ations</w>
▁T ri
▁Ex pec
▁Ch an</w>
s▁ ec▁
r ain
p▁ ur
mit t▁ed</w>
jo▁ o</w>
je▁c ts</w>
increa sed</w>
ill io▁n</w>
h ope</w>
fam ilies</w>
f ol▁
establis ▁h
des ign</w>
c ars</w>
P re▁sid
K▁or e▁an</w>
Da egu</w>
▁rel atives</w>
▁instruc tor</w>
▁in fr
▁chec k
▁appl iances</w>
▁Des ign</w>
▁Cong ress</w>
▁A wards</w>
▁&apo▁s ;t</w>
un gh
tour i▁sm</w>
t ou
s▁ s</w>
s▁ h</w>
sum mer</w>
or iz
olo▁g ical</w>
mak ers</w>
m ilitary</w>
in stitu▁
ign ity</w>
id eo</w>
i enc▁e</w>
ex▁ pl
develo▁p ment</w>
c ateg
arant ine</w>
appro pri
ac ing</w>
▁un familiar</w>
▁t ied</w>
▁sc at
▁poll ut
▁mo tiv
▁log ic</w>
▁ex ists</w>
▁eng in
▁a▁ fter</w>
▁ar ms</w>
▁H ollywood</w>
▁Egyp t</w>
rea di▁ng</w>
re vi▁ew</w>
pri▁v ate</w>
on ze</w>
hy ▁e</w>
hw amun</w>
gr a▁de</w>
es tic
er▁ at▁ion</w>
d .</w>
comm▁ ittee</w>
cas ▁e</w>
be t▁wee▁n</w>
at▁ ure</w>
ad vis
Ch eo▁ng</w>
▁wat ers</w>
▁show case</w>
▁see kers</w>
▁l abor
▁h itting</w>
▁W ang</w>
▁Se ungri</w>
▁M un
▁Kinderg arten</w>
re d▁uc
ou l
on▁ t</w>
mov ie</w>
ma i▁n
k ind</w>
h▁ ot</w>
hy th
h uge</w>
fu▁r ther</w>
ecu tive</w>
ea c▁e</w>
corpor a▁te</w>
cont ent</w>
bel iev
b i▁ll</w>
au g▁h
an▁ ding</w>
▁wh oles
▁tax ation</w>
▁supervis e</w>
▁sec onds</w>
▁repres ent</w>
▁prot ected</w>
▁l ev
▁del inqu
▁compon ents</w>
▁am azing</w>
▁ag es</w>
▁S ung
▁J ames</w>
▁D omestic</w>
ye on
w ar▁
w anese</w>
v ic▁
sch ol
int▁ern al</w>
in ent</w>
im ent</w>
fl ix</w>
equ ality</w>
ee▁ ch</w>
c▁ enter</w>
adv a▁n
administr▁ ative</w>
Dis trict</w>
B as
6 ▁th</w>
▁t ower</w>
▁seas ons</w>
▁sc r
▁princi ples</w>
▁part ners</w>
▁initi ally</w>
▁fri endship</w>
▁driv en</w>
▁d ancing</w>
▁bur ied</w>
▁bull etin</w>
uti n</w>
o th▁
cl u▁d
b al▁l</w>
S he</w>
▁w e
▁supervis or</w>
▁sign ature</w>
▁pl edge</w>
▁out look</w>
▁mist akes</w>
▁i m▁
▁f i▁
▁b acter
▁Y eong</w>
▁O pen</w>
▁K imchi</w>
▁B each</w>
t▁ in▁g</w>
sh r
ri ble</w>
priv ileg
ph o▁ne</w>
ky u▁ng</w>
id ation</w>
gr▁ ow
g ate</w>
es t▁s</w>
end ations</w>
ec tion
div ision</w>
dev e▁lop
conc er▁
al ties</w>
D o▁ng</w>
D A</w>
▁sw ing</w>
▁resc ued</w>
▁r ank</w>
▁gu ardian</w>
▁ess ay</w>
▁d il
▁Int egr
▁Em bassy</w>
str eng▁
resid▁ ents</w>
poin▁ ts</w>
nor the▁rn</w>
it t▁ed</w>
d▁ ef
dr a▁ma</w>
disab l▁ed</w>
ch a▁n
car ri▁ed</w>
b▁ eh
ab ol
S▁ ec
Prov▁ inc▁e</w>
▁sm a▁ll</w>
▁sal t</w>
▁restric tion</w>
▁res ort</w>
▁minis ters</w>
▁d awn</w>
▁clos ure</w>
▁R eal
▁Fin ally</w>
▁Confuc ian</w>
▁10 0th</w>
tain me▁nt</w>
stu▁ dy</w>
spe▁ ci
pr ic▁es</w>
on▁ ment</w>
og r▁
n om
m▁ ust</w>
if elong</w>
em an</w>
d▁ ev
al tern
T alk</w>
Se ong</w>
S D</w>
D irector</w>
8 5</w>
0 5</w>
▁produc tivity</w>
▁p itcher</w>
▁out break</w>
▁in appropriate</w>
▁i sol
▁exc iting</w>
▁encour aging</w>
▁V al
▁S sang
▁Inst agram</w>
▁Ac coun
v ily</w>
urr ing</w>
tro versy</w>
t less</w>
sh ed</w>
sc en
s essi▁on</w>
plac ▁e</w>
p port</w>
nec e▁ss
iv e▁d</w>
ic ted</w>
h a▁nd</w>
fl ow</w>
en ly</w>
empl o▁
e ur</w>
du ▁e</w>
c▁ as
ca▁l led</w>
ar ms</w>
al▁ y
ag a▁inst</w>
adv ance</w>
N ovember</w>
Administr ati▁ve</w>
▁str aw
▁rec all</w>
▁rea ction</w>
▁pr▁ ice</w>
▁pic ked</w>
▁n am</w>
▁jum ped</w>
▁ch arm</w>
▁categ ories</w>
▁camp ing</w>
▁advant ages</w>
▁2 50</w>
x y</w>
m▁ anag
int▁er est</w>
inter▁ es▁ted</w>
h eat</w>
f▁ fer
d ev▁el
d ated</w>
b en▁
amm ar</w>
Sp▁ec ial</w>
Pro▁v ince</w>
Eng ine
D▁ ec
▁ther apy</w>
▁t ells</w>
▁surpr ise</w>
▁struc tural</w>
▁spec ulation</w>
▁r itual</w>
▁pour ed</w>
▁k ind
▁fl ights</w>
▁H ope</w>
▁Dong jak</w>
w ay▁s</w>
sy n
r▁ o</w>
n▁ ov
j un
i▁ li
ing re
h al
d emocr
c op
M ayor</w>
G e▁n
E a▁st</w>
▁week ly</w>
▁pre ferred</w>
▁des irable</w>
▁bel t</w>
▁ap par
▁additi onally</w>
w▁h a</w>
un til</w>
ta▁ ek</w>
rel at▁
re ported</w>
in ate</w>
if ted</w>
f▁ ourth</w>
e▁c t▁ion</w>
er ge</w>
b ri▁
Sm a▁ll</w>
Rep resent
Japa▁n ese</w>
4 00</w>
▁sp ot
▁pr ayer</w>
▁pat rol</w>
▁heal ing</w>
▁h urry</w>
▁h obby</w>
▁gr ateful</w>
▁be t▁ween</w>
▁Pro perty</w>
▁Per haps</w>
▁Ear th</w>
▁Con ference</w>
tr aining</w>
ti f▁
thr▁ oug▁h</w>
ter▁ m</w>
spec if▁ic</w>
situ▁ at▁ion</w>
requ e▁st</w>
pro▁ du▁c
o▁ int</w>
n or▁
mis sions</w>
i▁t ary</w>
int ell
h eon</w>
g ye</w>
b ok
app▁ rov
Dec emb▁er</w>
Am e▁r
Ag en▁cy</w>
▁w ishes</w>
▁techn iques</w>
▁s um</w>
▁k id
▁j unior</w>
▁in sur
▁democr atic</w>
▁S an</w>
▁Med ia</w>
▁ME RS</w>
▁B udget</w>
▁7 5</w>
▁3 6
▁ on</w>
se i</w>
rel ations</w>
rea d▁y</w>
p us
ol ved</w>
n e▁r</w>
l i▁n
j eo▁ng</w>
inves▁ tment</w>
h▁el p</w>
e▁c tive</w>
ex tr
ev ision</w>
en tic
emp▁l oy
emplo▁y ment</w>
each ment</w>
d eep</w>
ati on▁
accus ▁ed</w>
H an▁
▁w oo</w>
▁vis ual</w>
▁symb ol</w>
▁prof itability</w>
▁p ack</w>
▁meas urement</w>
▁k i</w>
▁hea ded</w>
▁emb arr
▁depos its</w>
▁concentr ate</w>
▁Yeong deungpo</w>
▁J a</w>
▁Cheong do</w>
▁Afr ican</w>
tr a▁ck</w>
sy▁st e▁m</w>
r▁ ow</w>
rev ealed</w>
p▁ ric
p▁ re▁
prev e▁n
pop ular</w>
o ffer
investig▁ at▁ion</w>
in c▁l
hou s▁es</w>
ex p▁er
d▁ irec
distr ib▁
ch e▁d</w>
c alled</w>
ac he</w>
ac ent</w>
O E
C E▁
▁w ealth</w>
▁retur ns</w>
▁manufactur er</w>
▁Trea sury</w>
▁J ourn
▁Gim hae</w>
uc ky</w>
t▁ic l▁e</w>
throu▁ g▁h</w>
sec retary</w>
reg istr
r at▁
pop ul
ok en</w>
oc▁ ks</w>
k es</w>
indus tr▁y</w>
i an
f an</w>
exp e▁n
e iling</w>
d u</w>
cl▁ ub</w>
ar▁t m▁ent</w>
W ar</w>
Nov emb▁er</w>
K ing</w>
Aug u▁st</w>
▁sp eaker</w>
▁po is
▁phr ase</w>
▁p ine</w>
▁fro zen</w>
▁exc ep
▁discus sing</w>
▁descri bed</w>
▁cos t
▁R ef
▁K n
▁200 4</w>
y▁ st
w th</w>
t▁im ▁e</w>
ti▁ c</w>
t elecomm
sti ce</w>
sp ir
refe▁r r▁ed</w>
receiv i▁ng</w>
o▁ .</w>
l ow
i▁ ti▁es</w>
ivers a▁ry</w>
grow i▁ng</w>
exec u▁
d▁ ec▁
div isi▁on</w>
co▁m m▁
c ente▁r</w>
b▁ etter</w>
bu▁ k</w>
adem▁ ic</w>
O T
E U</w>
Ar t▁
1 .▁
▁vis a</w>
▁thea ters</w>
▁mathem atics</w>
▁inform atization</w>
▁ha bit
▁exam s</w>
▁dr one</w>
▁c ats</w>
▁bel ongs</w>
▁ar med</w>
▁M el
th rea
s▁ enior</w>
s ale</w>
ou t▁h</w>
me▁ etin▁g</w>
ic▁ at▁ion</w>
g ap</w>
f▁ir s▁t</w>
fe▁ es</w>
e uk
d augh
b i</w>
as ▁h
Rus sia</w>
I CT</w>
5 4</w>
▁is▁ sue</w>
▁fl at</w>
▁em issions</w>
▁dis trib
▁contro lled</w>
▁Tr ad
▁R ail
▁& amp;</w>
t led</w>
sm oki▁ng</w>
probl e▁ms</w>
ot▁ ion</w>
mi▁n imu▁m</w>
m al
ign s</w>
ic ked</w>
g a▁n
f a▁ll</w>
equ ▁
en c▁es</w>
cl▁ ud
cer emony</w>
b i▁g
a▁t eg
at▁ a</w>
at or
ai▁ led</w>
J un</w>
Hw as
9 8</w>
▁t o▁t
▁t e▁r
▁prot ecting</w>
▁fin ancing</w>
▁compl eting</w>
▁absol ute</w>
▁U.S.- North</w>
▁Tai wanese</w>
▁N ak</w>
▁Inter ior</w>
▁H ae
▁5 00,000</w>
▁&▁ a▁mp;</w>
su ff▁
si▁ d
sing▁ le</w>
pre fer
plac ▁es</w>
p ower
l a</w>
in▁ ter
inter est</w>
im ▁e</w>
ex po▁rt</w>
ex hib▁
est▁ ival</w>
er e▁d</w>
c enter▁ed</w>
Oct ob▁er</w>
In nov
G e
5▁ 0</w>
▁t ool</w>
▁r ank
▁n omin
▁m in</w>
▁inv ite</w>
▁h al
▁esc al
▁def eat</w>
▁d ormit
▁con clude</w>
▁comm and</w>
▁b orrow</w>
▁T ong</w>
▁St ock</w>
st ar</w>
oper a▁te</w>
op pos
ogr am</w>
me▁ as
in▁ clu▁
id ers</w>
h arm
e▁m ber</w>
educ a▁tion</w>
e u▁p</w>
dem and</w>
ati tude</w>
U V</w>
S en
O r▁
4 t▁h</w>
▁toil et</w>
▁sn acks</w>
▁shou ldn</w>
▁sem i</w>
▁op tions</w>
▁U sually</w>
▁P rivate</w>
▁O ut
▁Con test</w>
▁B io</w>
sup po▁r
s ize</w>
pr▁o ject</w>
prosec ution</w>
mem▁ bers</w>
l▁ ack</w>
hom ▁e</w>
h im
facil itie▁s</w>
dus try</w>
dis ast▁er</w>
dep art▁
cos ts</w>
co a▁ch</w>
ar ▁s</w>
an ting</w>
Ph il
I ▁n</w>
F und</w>
20▁1 6</w>
▁t onight</w>
▁symb ol
▁sil ver</w>
▁h a▁ve</w>
▁disapp ear</w>
▁de ployed</w>
▁cons ervation</w>
▁ch ocolate</w>
▁at tributed</w>
▁a ired</w>
▁H am
▁F ootball</w>
▁4 6</w>
v in▁g</w>
str ess▁ed</w>
p ical</w>
p ea▁ce</w>
f ound</w>
end ants</w>
discu▁ ss</w>
cili ation</w>
aul o</w>
as t▁ic</w>
af ts</w>
U▁ S</w>
&a p▁o▁s
▁th e▁r▁e</w>
▁ter rit
▁super ior</w>
▁str ic
▁str et
▁ref unded</w>
▁rec overed</w>
▁r oles</w>
▁mus cles</w>
▁miss ile</w>
▁direc tions</w>
▁bl ow</w>
▁T ottenham</w>
▁N atur
▁Bur ning</w>
ur ban</w>
s▁ ee▁
sec t▁or</w>
s pr
ri ental</w>
rec ently</w>
po▁ or</w>
p ic▁
ook ie</w>
m il▁lion</w>
g rou▁p</w>
d i▁c
a▁m es</w>
at al</w>
ap o▁s▁
Sec reta▁ry</w>
H u
A f▁f
&apo▁s ;t</w>
▁wor ship</w>
▁won derful</w>
▁system atically</w>
▁str eam</w>
▁re verse</w>
▁effec tiveness</w>
▁comm ander</w>
▁class room</w>
▁att acks</w>
▁Sun cheon</w>
▁Pl aza</w>
▁Eas tern</w>
▁4 0
w▁ an▁
wor l▁d</w>
v ulner
ul▁ y</w>
tur ▁al</w>
tr e▁ss</w>
te▁ er</w>
tak en</w>
sm artph
re in
rank ▁ed</w>
pur su▁
pl eas
ph y▁
k y▁u</w>
in▁ st▁
ic ian</w>
fort ably</w>
ever y▁
eong buk</w>
el ig
d▁uc t</w>
b▁ usiness</w>
brea k
b or▁
Y ou</w>
Lib▁ erty</w>
# 9
▁w ood</w>
▁sup plement</w>
▁recru iting</w>
▁green house</w>
▁g rap
▁bott le</w>
▁ath l
th o▁
sh▁ op</w>
s en▁
re vi▁
p▁er▁ son</w>
oo th
m eal</w>
i▁ red</w>
inc re▁as
imb ap</w>
h▁ y
h▁ ome</w>
hel▁ p</w>
g ress</w>
g il</w>
g am▁e</w>
f a
emer▁ gency</w>
emb le</w>
dro me</w>
diff▁er en▁t</w>
ce▁n ter</w>
ad m
ac k▁
20 ▁th</w>
▁y ear▁s</w>
▁uni forms</w>
▁in noc
▁encour aged</w>
▁dem ol
▁cap tured</w>
▁b ul
▁b e▁c
▁air line</w>
▁Hu h</w>
▁Gwang hwamun</w>
▁Braz ilian</w>
w oman</w>
w ea▁
ular ities</w>
t un
sum mi▁t</w>
st ay</w>
so▁ ci
own e▁rs</w>
lea der</w>
k ly</w>
iti s</w>
invest ment</w>
ib l▁e</w>
fi▁r s▁t</w>
e▁ o</w>
e▁ au</w>
di▁ rec
dep artment</w>
conditi o▁ns</w>
comp▁ an▁ies</w>
be▁c a▁us▁e</w>
K won</w>
▁wor n</w>
▁w ash</w>
▁th reat</w>
▁text books</w>
▁s ang</w>
▁objec tive</w>
▁id e
▁dis tur
▁cont ext</w>
▁chil dhood</w>
▁appl ies</w>
▁K B</w>
▁Bu ilding</w>
▁B esides</w>
z er
wh▁ ile</w>
u▁ p
tr▁ ib
sever ▁al</w>
i▁n ter
ir eless</w>
en j▁oy</w>
ec os
d▁ es▁
dire▁c t▁or</w>
conf e▁r
comm un▁
ap h
ab ies</w>
Serv ice</w>
K R▁W</w>
Dis tric▁t</w>
▁r oot</w>
▁n arrow
▁instr uments</w>
▁influ enced</w>
▁ill ness</w>
▁f ant
▁en able</w>
▁des c
▁conven tion</w>
▁ag ents</w>
▁Expec tations</w>
▁Ben to</w>
▁B al
▁200 2</w>
y▁ ear▁s</w>
work er▁s</w>
up yeong</w>
s▁ec on▁d</w>
si t▁es</w>
sent enc▁ed</w>
produc tion</w>
o▁ ms</w>
ou ses</w>
ou ble</w>
mov ▁ed</w>
leg isl
i▁m p▁
in i</w>
hou ses</w>
ew o▁rk</w>
ep▁ t</w>
dis trict</w>
direc ▁
de▁ l
competi tiv
comp eti▁
a▁n ds</w>
ay o▁r</w>
ativ e▁ly</w>
O l
K w▁on</w>
Janu a▁ry</w>
G rou▁p</w>
C s</w>
B o
18 ▁th</w>
1 00
▁ul tra</w>
▁observ ation</w>
▁cover age</w>
▁Wh ether</w>
▁Ital ian</w>
stu▁d en▁ts</w>
sec ti▁on</w>
r▁ea s▁on</w>
oper▁ ating</w>
ma▁ k▁e</w>
m u</w>
l▁ ea▁
j ourn
inc▁ rea▁se</w>
hou s▁
g row</w>
foll ow▁ed</w>
fir m</w>
e▁ p
esti m
ea uty</w>
ce▁r tain</w>
at te▁nd</w>
Or di▁n
L an▁d</w>
E ur▁
C▁ omm
A sian</w>
&ap▁os;▁ ve</w>
▁str ea
▁recycl ing</w>
▁re plied</w>
▁open s</w>
▁manufactur ed</w>
▁judg ing</w>
▁high way</w>
▁gu ards</w>
▁func tional</w>
▁every where</w>
▁confir ming</w>
▁B ong</w>
▁2 .5</w>
ti ll</w>
streng th▁en</w>
o▁ cr
os es</w>
or ities</w>
manag ▁er</w>
il▁ d</w>
f elt</w>
e▁n ▁t</w>
exhib iti▁on</w>
est yle</w>
eb ack</w>
denuclear izati▁on</w>
chang ▁ed</w>
c ore</w>
aw a▁y</w>
agre▁ ed</w>
P O</w>
A R
1 .
▁vir us</w>
▁viol ent</w>
▁rem emb
▁o cean</w>
▁mach inery</w>
▁fi x</w>
▁div or
▁dep ression</w>
▁architec ture</w>
▁Techn o</w>
▁B uk
▁Ac tually</w>
▁A rea</w>
y▁ eong</w>
y outh</w>
tur n▁ed</w>
pro perly</w>
o▁r ry</w>
o▁ d
or g▁an
n ur
ky un▁g</w>
j on▁g</w>
i▁ ev
ic ro</w>
g ar
fac tory</w>
di ed</w>
compl eted</w>
bur d▁en</w>
b ac▁k</w>
at mos
acc or▁
J ud
J a▁n
C en▁
▁terr or
▁f em
▁des ired</w>
▁conver gence</w>
▁conduc ts</w>
▁Sih eung</w>
▁Pal ace</w>
▁Nam yangju</w>
▁Mex ican</w>
▁Ch i▁na</w>
▁Argent ina</w>
▁All ow
st an▁d
st and</w>
sa▁ fe</w>
s exual</w>
pen s▁
out si▁de</w>
op p▁os
n is</w>
my u▁ng</w>
il▁ ar</w>
ff ers</w>
ex▁ pec
es ti▁ng</w>
co al</w>
chi▁l dren</w>
at en</w>
ar i▁es</w>
al ition</w>
I FA</w>
G o▁ver
Dem ocr▁atic</w>
2▁ 00
▁wid th</w>
▁veter ans</w>
▁t all</w>
▁public ity</w>
▁promp tly</w>
▁expres sions</w>
▁contr ast</w>
▁agre ements</w>
▁Mok po</w>
▁Gun san</w>
▁1 ,0
ung er</w>
t▁er m</w>
tr end</w>
s ig▁n
r u▁n</w>
pre▁ ss
op pos▁ition</w>
m▁ ove</w>
min ut▁es</w>
in y</w>
im ate</w>
eti es</w>
coo p▁er
c e▁nt</w>
ann a</w>
ad i▁um</w>
O lymp
O c
20 20</w>
▁up date</w>
▁tou ching</w>
▁pr▁ o
▁p ure</w>
▁j u</w>
▁inquir y</w>
▁inc idents</w>
▁f a▁
▁Y on
▁S ar
▁F ed</w>
t een
sh owed</w>
sen ior</w>
s ymp
ph y</w>
or al</w>
omer ates</w>
im pr▁ov
ic on</w>
h ospital</w>
f▁ ood</w>
e▁c ts</w>
e▁ sti
erm al</w>
distribu ti▁on</w>
c ur▁
ati n</w>
ar▁ ly</w>
P G</w>
N▁ am</w>
Coun ci▁l</w>
Comm it▁tee</w>
▁wal ked</w>
▁real istic</w>
▁publ ishing</w>
▁pat ri
▁helicop ter</w>
▁gradu ated</w>
▁fir ed</w>
▁entr us
▁defin itely</w>
▁con stitutional</w>
▁c ope</w>
▁aud itor</w>
▁ass essed</w>
▁Se odaemun</w>
▁Oper ation</w>
vol u▁n
un ive▁r
so ft</w>
ind u▁stry</w>
in ema</w>
ex▁ per
exper ience</w>
ew ay</w>
ch ase</w>
arb ucks</w>
ar io</w>
an ity</w>
S CO</w>
En gli▁sh</w>
▁uplo aded</w>
▁surv ive</w>
▁sh ower</w>
▁relation ships</w>
▁pursu ed</w>
▁prin t</w>
▁pi ano</w>
▁l ie</w>
▁hea vily</w>
▁foun der</w>
▁draw s</w>
▁P angyo</w>
▁Chun cheon</w>
w arm</w>
vi ew▁
un▁ it</w>
t▁ aking</w>
sub scri
sch oo▁l</w>
po▁p ular</w>
per or</w>
o ther
m ur
issi o▁n</w>
for▁ ce</w>
f a▁r</w>
et w▁een</w>
comm erc
b ill</w>
a▁t t▁
ad ong</w>
H os
Gang w▁on</w>
For ei▁gn</w>
▁wit ness</w>
▁special izing</w>
▁separ ation</w>
▁s ing</w>
▁prin ting</w>
▁pow der</w>
▁por tra
▁lif ted</w>
▁k ey
▁for ests</w>
▁ec ological</w>
▁def ined</w>
▁cl ar
▁S k
▁C E
v▁ i
un iver
u e▁s</w>
ro a▁d</w>
r ain</w>
ool ▁s</w>
ol▁ ved</w>
negoti ations</w>
natur ▁al</w>
in e▁s</w>
i o▁r</w>
f oot</w>
f inal</w>
f al
d an</w>
consid er▁ed</w>
ab il▁
S u</w>
Prov in▁cial</w>
M r.</w>
▁s▁ ince</w>
▁sav ing</w>
▁rem ark
▁r ot
▁l ap
▁frequ ency</w>
▁borrow ed</w>
▁bloc king</w>
▁b ad
▁V eter
▁Th us</w>
▁T ong
▁Bas ic</w>
▁A round</w>
trea tment</w>
special iz▁ed</w>
rep▁ or▁ted</w>
reason able</w>
p▁l ay</w>
produ▁c tion</w>
pr i▁se</w>
l▁ ong</w>
l▁ and</w>
in e▁d</w>
hea▁ ds</w>
e▁st ate</w>
establis hed</w>
ep ts</w>
ell ence</w>
d able</w>
cor rec
at ar</w>
M ex
I l</w>
▁wh er▁e</w>
▁transpar ent</w>
▁tr ag
▁t a▁
▁fulf ill</w>
▁faith fully</w>
▁explos ion</w>
▁des truction</w>
▁ap ology</w>
▁Republ ican</w>
▁M yeong
▁Canad ian</w>
vers eas</w>
techn▁ ology</w>
st o▁ck</w>
rea l▁
pr▁o duc
ol ine</w>
l iter
i▁ ke</w>
i▁ e</w>
infl▁ u
hist or
g▁ ame</w>
form ance</w>
de▁ al</w>
bi▁ll ion</w>
b ur▁
al▁ led</w>
Wh en</w>
M a▁
Dec r▁ee</w>
▁simultan eously</w>
▁lec tur
▁journ alists</w>
▁co astal</w>
▁al liance</w>
▁a uction</w>
▁Po cheon</w>
▁N ob
▁C amp</w>
y gen</w>
r▁eal l▁y</w>
p▁os e</w>
p▁ ri▁
pr▁ event</w>
o▁ k
ord i▁n
op ment</w>
mo▁n th</w>
m eter</w>
iz er</w>
ex ist</w>
es h
ear cher</w>
cl ean
burs ement</w>
b u▁r
a▁l ue</w>
a▁ ld</w>
ati▁ c</w>
ann o▁un▁
al i▁ze</w>
Sep t▁
Pen insula</w>
J u</w>
H▁ an
B▁ usan</w>
A gency</w>
9 5</w>
▁r arely</w>
▁pro p
▁k ill</w>
▁exam ined</w>
▁dismis s</w>
▁challeng es</w>
▁ch ampionship</w>
▁bl oss
▁b att
▁P utin</w>
▁Nex en</w>
▁G ender</w>
▁G all
▁F uture</w>
▁8 00</w>
u ary</w>
sup porti▁ng</w>
so▁m e
sh ing</w>
rai▁ se</w>
p▁ ing</w>
pr▁o f
pen ses</w>
o▁r ed</w>
n▁ ational</w>
n ae</w>
k▁ yu</w>
in▁ clud
insu▁r ance</w>
gre ement</w>
ec ti▁ng</w>
condu▁c t</w>
con trib
b▁ ak</w>
busin esses</w>
bas is</w>
Jos e▁on</w>
Econ o▁my</w>
Comm i▁t
▁tax is</w>
▁t elling</w>
▁sti mul
▁sl owing</w>
▁shor ter</w>
▁reg eneration</w>
▁per ▁
▁over time</w>
▁l ying</w>
▁coun sel</w>
▁commerci alization</w>
▁comb ines</w>
▁arr ang
▁P ress</w>
▁Nav y</w>
▁Elec tric</w>
▁Comm unications</w>
▁Cath olic</w>
v ation</w>
to▁ wn</w>
sho▁ w</w>
pl a▁y</w>
pers on▁al</w>
o▁n g▁
o▁ il</w>
organiz ations</w>
ophis tic
est ab▁
enc ement</w>
en ti▁ng</w>
co▁ l
c over
b▁ el
at ever</w>
ak er</w>
Unive▁r sity</w>
L abor</w>
D▁ a
8 4</w>
&▁qu ▁o▁t;</w>
▁sc ri
▁reg ret
▁m ix
▁heatw ave</w>
▁c r▁
▁c eiling</w>
▁aut onomy</w>
▁attemp ts</w>
▁anticip ated</w>
▁Pur suant</w>
▁E X
y▁ et</w>
si onal</w>
sh ot</w>
s qu
prepar ▁ed</w>
n▁ ext</w>
n e▁rs</w>
ma▁ king</w>
l▁ o
ho▁ od</w>
h all</w>
d▁ is▁
d ire▁ct</w>
ar▁ ks</w>
ar▁ es</w>
abil iti▁es</w>
Y eon</w>
W o▁r
Jap anese</w>
9 ▁th</w>
▁tex ture</w>
▁syn ergy</w>
▁spl it</w>
▁recru ited</w>
▁peti tion
▁ob taining</w>
▁newsp apers</w>
▁g olden</w>
▁cri tics</w>
▁comm encement</w>
▁b ound
▁D al
un▁ d</w>
u ating</w>
s▁ id
str▁ y</w>
res▁ earch</w>
re form</w>
o▁ per
i▁c al</w>
in▁ at▁ion</w>
est a▁
bus y</w>
al y▁
P ea▁ce</w>
P C</w>
M oo</w>
Dis t▁rict</w>
Com pl▁ex</w>
A R</w>
▁u tion</w>
▁fail ing</w>
▁em ission</w>
▁bas ement</w>
▁US A</w>
▁S t▁
▁For tress</w>
▁B ong
un iversi▁ty</w>
ul ent</w>
st an
sk ills</w>
r▁ eg▁
o▁ r▁
on s▁
m▁ ajor</w>
ligh ted</w>
h a▁ll</w>
fur th▁er</w>
fin an▁cial</w>
es it
en▁t ary</w>
el der▁ly</w>
den ed</w>
d eal</w>
cont e▁nt</w>
azakh stan</w>
am ics</w>
C iv▁il</w>
B y
▁sn ow
▁prec ed
▁obser ve</w>
▁new sletter</w>
▁l yrics</w>
▁gl ob
▁for ming</w>
▁commemor ate</w>
▁a t▁
wit h▁
w as▁te</w>
us ter</w>
tax i</w>
t ech▁n
st▁ ar</w>
s us▁
relation sh▁ip</w>
ra▁ in</w>
pr is▁on</w>
or ds</w>
lo an</w>
id en▁ce</w>
e▁ pt</w>
eo ju</w>
ec tly</w>
dom in
d am</w>
c▁h o
ag ainst</w>
T a▁
L ocal</w>
K ong</w>
J ▁ung</w>
Gyeon▁g gi</w>
F estiv▁al</w>
Elec tr
D▁ ay</w>
4 0
,▁0 00</w>
▁un ified</w>
▁r ough</w>
▁oper ational</w>
▁bel ief</w>
▁ar t
▁accur ately</w>
▁M u
▁G olden</w>
▁G ame</w>
ur c▁h</w>
sid ▁
sem iconduc
pos sibili▁ty</w>
o▁ ci
l oo▁
g▁ l
facil i▁ties</w>
environ ment▁al</w>
dir▁ ec▁
c▁om p▁
con sec
br an▁ch</w>
at o▁r</w>
as er</w>
ap p▁l
announ ceme▁nt</w>
al▁ ty</w>
alifor nia</w>
T BC</w>
P u▁
J▁ in</w>
En tr
▁w eigh
▁th rew</w>
▁t ox
▁sincer ely</w>
▁sh ut</w>
▁sec tions</w>
▁reven ues</w>
▁reserv ed</w>
▁qu it</w>
▁investig ative</w>
▁in ser
▁fe ed
▁do ors</w>
▁class ical</w>
▁Re form</w>
▁Ch ild</w>
yo▁ nd</w>
sub m▁
sk in</w>
se o▁ng</w>
r▁ul ing</w>
n ity</w>
man a▁g
l im</w>
im p▁rov
ess e▁d</w>
c▁l ass</w>
co▁mp an▁y</w>
S▁ on</w>
Se▁ ou▁l</w>
SE AN</w>
R u▁s
▁w ild
▁trav eled</w>
▁tr acking</w>
▁reti red</w>
▁restor ed</w>
▁p ep
▁med ic
▁j in</w>
▁in corpor
▁hot els</w>
▁fl ying</w>
▁def ects</w>
▁correc tive</w>
▁acknowl edged</w>
▁St atistics</w>
▁D okdo</w>
▁As ked</w>
t▁ est</w>
t om</w>
some▁ thing</w>
ser▁ ve</w>
r▁es▁ ult</w>
qu ar▁
onom o▁us</w>
ok cho</w>
inc▁rea se</w>
impo▁r t▁ant</w>
high▁ ly</w>
e▁ up</w>
es h</w>
empl ary</w>
d a▁m
c ivil</w>
br a▁nd</w>
a▁c tual</w>
at▁ is</w>
as m</w>
acc ide▁nt</w>
Jap a▁n</w>
Indus ▁
D s</w>
Bus a▁n</w>
▁th inks</w>
▁rep utation</w>
▁relig ion</w>
▁refr iger
▁progres sive</w>
▁pack aging</w>
▁p etro
▁mus icians</w>
▁hon est</w>
▁experim ent</w>
▁execu ted</w>
▁T ime</w>
▁H aving</w>
▁B roadcas
u▁ r</w>
u▁ me</w>
si bl▁e</w>
pres ent</w>
opin io▁ns</w>
le▁ m</w>
j uris
ig ation</w>
i al▁ly</w>
herein a▁fter</w>
g am▁es</w>
ey▁ es</w>
ec▁ k</w>
ecess or</w>
ana▁l y
S▁ chool</w>
L ove</w>
A M</w>
1 .5</w>
&ap▁os; r▁e</w>
▁wh▁ en</w>
▁rob ots</w>
▁ret ail
▁rea ders</w>
▁o the▁r</w>
▁men us</w>
▁hy un</w>
▁def endant</w>
▁c uts</w>
▁D obong</w>
us hing</w>
t▁ alk</w>
t an</w>
s om▁
rel atio▁n
p eti
on line</w>
ol▁ og
j ▁un</w>
ic▁ ies</w>
h is▁
gre▁ en</w>
eb a▁ll</w>
cust o▁m
crea ti▁on</w>
cou▁ ldn</w>
c ur▁r
c as▁
b its</w>
atis tical</w>
ab road</w>
Sam▁ sung</w>
M a▁y</w>
8 6</w>
▁surv eys</w>
▁renew ed</w>
▁occup ied</w>
▁mon opol
▁mission ary</w>
▁mass age</w>
▁lea k</w>
▁h ea▁d</w>
▁facilit ate</w>
▁entreprene urs</w>
▁del eted</w>
▁d ess
▁N ations</w>
u▁ sing</w>
st ro
scor ▁ed</w>
pro▁duc t▁s</w>
pro c▁
ol der</w>
it o</w>
involv ▁ed</w>
i ou▁s</w>
e▁l t</w>
exp▁ ec▁te▁d</w>
er▁ n</w>
emb ly
d▁em a▁nd</w>
d▁ irect</w>
ce▁ pt</w>
b etter</w>
arres t▁ed</w>
air y</w>
U r
Pro t
O▁ ff▁ice</w>
H e▁al
▁th row</w>
▁ter minal</w>
▁repres ents</w>
▁rel uc
▁rel ics</w>
▁p r▁es
▁impris onment</w>
▁f ly</w>
▁cur iosity</w>
▁concer ts</w>
▁che ese</w>
▁abnorm al</w>
▁M e</w>
▁7 00</w>
wh▁ y</w>
un i▁on</w>
s▁ ea</w>
se▁ t</w>
reg▁ ional</w>
p a▁re</w>
nu▁m b▁er</w>
m▁ is
l im▁
in st▁
ili ans</w>
for eign</w>
fi▁ ts</w>
e▁ lo▁
d▁ on</w>
b▁e e▁n</w>
M E</w>
Gw a▁ng
Feder ati▁on</w>
Div isi▁on</w>
Ch e▁
2▁ 00</w>
▁wor ries</w>
▁st amp</w>
▁ref res
▁r ear</w>
▁p ays</w>
▁mot or
▁indic ating</w>
▁guarant ees</w>
▁ex posure</w>
▁di ab
▁crow d</w>
▁c ar▁
▁Tor onto</w>
▁Sy dney</w>
▁M ake</w>
▁Lt d</w>
um ing</w>
tur ned</w>
r▁e port</w>
p e▁r</w>
f ath▁er</w>
con ver
c i▁ng</w>
ac ro▁ss</w>
K i▁ng</w>
I ▁f</w>
En vir
E ast</w>
7 7</w>
6 8</w>
1▁ 1</w>
19 ▁th</w>
▁pres ents</w>
▁mois ture</w>
▁jud iciary</w>
▁eas tern</w>
▁conven ed</w>
▁comp eting</w>
▁c alligraph
▁Vol unt
▁St arbucks</w>
▁H igh
▁Fr anc
wr ong</w>
tu al▁ly</w>
ta▁l k</w>
s▁ ure</w>
st ar▁
sem icon
re▁ f
res earch</w>
pe▁r c▁ent</w>
p u▁t</w>
p a▁y</w>
mut at▁is</w>
mee▁ ting</w>
h▁ ea
e▁ar ly</w>
er a▁l</w>
educ ation▁al</w>
c▁om ing</w>
au▁ gh
ann u▁al</w>
am ation</w>
ai▁r man</w>
Hy▁ undai</w>
G o▁
Dem▁ ocr
A m▁
▁st ation
▁per petr
▁min i</w>
▁exc eption</w>
▁deliber ated</w>
▁d ried</w>
▁cy ber</w>
▁advant ageous</w>
▁St ar</w>
▁P a▁rty</w>
vis ion</w>
v o▁
v oc
t▁ ain</w>
t our</w>
sur es</w>
st one</w>
sched ule</w>
re▁su▁l ts</w>
ori▁g inal</w>
menti on▁ed</w>
l oo▁k</w>
incr▁ eased</w>
ill i
h ans
for c▁
e▁c ti▁on</w>
ec▁ on▁
e try</w>
do g</w>
b▁ ody</w>
bus▁in es▁s</w>
buil t</w>
ann iversa▁ry</w>
am ination</w>
ai▁n ed</w>
Y o▁
Tour i▁sm</w>
Ordin▁ an▁ce</w>
N o</w>
F am
6 1</w>
2 ,000</w>
1▁ 5</w>
1▁ 0
▁t igh
▁t ies</w>
▁scre ened</w>
▁s u</w>
▁rem ote</w>
▁rem od
▁pri zes</w>
▁philos ophy</w>
▁mus h
▁har sh</w>
▁f ast
▁dom inated</w>
▁dispos able</w>
▁determ ination</w>
▁cl ause</w>
▁celebr ation</w>
▁after math</w>
▁Sou thern</w>
▁Comm unication</w>
▁200 3</w>
w ait</w>
u▁n ique</w>
s▁ u</w>
s ym
rec▁ ently</w>
ra ised</w>
pur pose</w>
lo▁ w</w>
h ang</w>
g▁r am</w>
crea▁ t▁e</w>
ass aul
af▁ ety</w>
adem ic</w>
Y ork</w>
W e▁l
Gyeongsang nam</w>
▁wholes ale</w>
▁there for</w>
▁suspec ts</w>
▁organiz ing</w>
▁lic en
▁fish eries</w>
▁believ ing</w>
▁be in▁g</w>
▁aud ition</w>
▁a h</w>
▁Super intendent</w>
▁G apyeong</w>
▁Coun cilor</w>
▁Con troversy</w>
▁B ro
y cles</w>
th e
techn olog
st▁ ory</w>
si▁ ons</w>
pay ment</w>
no▁ un
n ee▁ds</w>
l an▁
l ack</w>
i▁s t▁er</w>
i▁s try</w>
e▁ ach</w>
exam inati▁on</w>
ef▁ ul</w>
di plom
di pl
cos ▁ts</w>
cons▁ um
ch ann
brief i▁ng</w>
and o</w>
an t▁ed</w>
ac▁ ks</w>
S ang
Febru a▁ry</w>
▁v ary</w>
▁rea ppoin
▁predic ts</w>
▁l ift</w>
▁l augh
▁en ro
▁dro ve</w>
▁design er</w>
▁cap able</w>
▁al g
▁Cooper ation</w>
▁5 4</w>
sp okes
soci e▁ty</w>
sec u▁re</w>
s en</w>
reduc ti▁on</w>
rec o▁rd</w>
prescri b▁ed</w>
por ary</w>
p t▁ion</w>
p en▁
oun▁ ds</w>
o o▁t
mov▁ ie</w>
mak ▁es</w>
iv in▁g</w>
g▁ il</w>
fras tru▁c
enti▁ re</w>
em et
del eg
c▁ alled</w>
conditi ons</w>
ber ry</w>
ar d▁s</w>
P A</w>
L▁ im</w>
3▁ 00</w>
▁work places</w>
▁under go</w>
▁th in</w>
▁lod ging</w>
▁inf ection</w>
▁dis ability</w>
▁ar tif
▁K aesong</w>
▁E val
▁An n
w ed
tr▁ ip</w>
th ink</w>
resp o▁n
re fo▁rm</w>
p▁er▁ iod</w>
purch as
op es</w>
me▁n ▁t</w>
iv▁ id
is i▁ng</w>
ien n
gr▁ ow</w>
gen c▁y</w>
f oot
ellig en▁ce</w>
ee▁ ded</w>
contin ued</w>
consecu ti▁ve</w>
ca▁ r</w>
beg i▁n
av ail
an i▁es</w>
am ▁s</w>
P eople</w>
▁wor ldwide</w>
▁prom inent</w>
▁port al</w>
▁p acked</w>
▁l uck</w>
▁k n▁
▁hos ting</w>
▁bec ▁
▁Ren ault</w>
▁N etwork</w>
▁M unicipal</w>
▁M ark
▁Isra el</w>
▁E th
under▁st a▁nd</w>
to▁ ur</w>
su▁ b▁
sur g
st▁ ep</w>
ser i▁es</w>
s ign</w>
s eon</w>
r▁e p▁ort</w>
pr▁o b▁lem</w>
prov inc▁e</w>
over ty</w>
mov eme▁nt</w>
i▁n v▁
il iti▁es</w>
h▁ ouse</w>
f ees</w>
bi▁ g</w>
T E</w>
J anuary</w>
G en▁
8 7</w>
▁rel ieve</w>
▁rel easing</w>
▁photograph s</w>
▁op posing</w>
▁mer it</w>
▁men tion</w>
▁l aid</w>
▁compar ison</w>
▁P aulo</w>
▁G oseong</w>
▁G ong
▁D ae
▁Ch amber</w>
▁C O
w▁or ld</w>
wit▁h out</w>
u▁r al</w>
uni q▁ue</w>
tr▁ ol</w>
sh o▁ws</w>
s ely</w>
rev ol
it e▁ms</w>
id ate</w>
h ar▁d</w>
employ ed</w>
d▁ et
den uclearization</w>
c▁ s</w>
co▁ ur
conv e▁n
coll e▁ge</w>
cer ta▁in</w>
b a</w>
ac ed</w>
ab l▁
P y
Me▁ tro
7 2</w>
▁z ero</w>
▁top ics</w>
▁sear ched</w>
▁sched ules</w>
▁rank ings</w>
▁qual ifications</w>
▁peac eful</w>
▁doub t</w>
▁dis sem
▁consist ently</w>
▁all ey</w>
▁G eo
w ill
un ist</w>
t aking</w>
p▁ il</w>
pre p▁ar
pas ▁t</w>
mo th▁er</w>
iv e▁s</w>
it▁ ted</w>
gov▁ern ment</w>
ex clud
en joy
c ue</w>
c om</w>
a▁ ud
al▁ leg
ail ▁ed</w>
ag r▁
M▁ in</w>
D e▁c
C r
C er
6 7</w>
&apo▁s ;
▁tran sition</w>
▁tr ains</w>
▁st agn
▁qu oted</w>
▁o p▁
▁low ering</w>
▁fea tured</w>
▁excav ation</w>
▁en ding</w>
▁dis inf
▁With out</w>
▁S an
▁20 21</w>
t▁ ural</w>
to▁ p</w>
particip ate</w>
of t▁en</w>
o v</w>
law m▁ak
j u▁d
it a</w>
intro du▁c
igh t▁s</w>
h ap
f▁ i
est a▁b
equip me▁nt</w>
duc ted</w>
canc▁ er</w>
c au▁se</w>
a▁ w
any▁ thing</w>
amp ions</w>
Gyeong sa▁ng</w>
D o
&qu o▁t▁;</w>
▁res trict</w>
▁reb ound</w>
▁plat forms</w>
▁n s</w>
▁l inking</w>
▁impres sed</w>
▁gr ammar</w>
▁e aten</w>
▁d ic
▁St eering</w>
▁M un</w>
▁? ?</w>
y esterday</w>
w▁ n</w>
ult▁ ure</w>
rul ing</w>
re pr▁es
pres e▁nt</w>
pr a▁c
perfor▁m ance</w>
perform anc▁es</w>
o▁ sed</w>
ov▁ er▁n
orig in▁al</w>
il er</w>
ho▁ using</w>
hol di▁ng</w>
di▁ g
dis mis
ci ences</w>
a▁t in▁g</w>
anno▁un▁ ced</w>
Y ou▁ng</w>
M▁in▁ istry</w>
IC E</w>
15 ▁th</w>
&▁qu ▁ot▁;</w>
▁un stable</w>
▁st eering</w>
▁pain ful</w>
▁occup ation</w>
▁occ urrence</w>
▁enthusi astic</w>
▁disc overy</w>
▁d ignity</w>
▁ar ise</w>
▁a n▁
▁Panmunj om</w>
▁E v
z y</w>
un it</w>
t een</w>
s▁ el
sch ools</w>
s o▁ns</w>
prof ess▁
pres sion</w>
po▁l ice</w>
pl▁ ace</w>
m▁ y
mar▁ ket</w>
lo▁ oking</w>
i▁n come</w>
includ ▁ed</w>
im age</w>
h us
foll▁ owing</w>
e▁n t▁s</w>
eal and</w>
dep▁ th</w>
cre d▁it</w>
c ol▁l
bea u▁
ag enci▁es</w>
Y i</w>
R▁ oh</w>
D I</w>
▁th r▁ough</w>
▁tend ency</w>
▁s eventh</w>
▁requir ing</w>
▁rec rea
▁oblig ation</w>
▁flo ating</w>
▁f ederal</w>
▁any time</w>
▁am o▁ng</w>
▁ad jus
▁O ver
▁Baek je</w>
un k
um in
s▁ aw</w>
res ta▁
liv ▁es</w>
iv ▁al</w>
is c
in▁ s
in e▁ss</w>
im▁ pro▁ve</w>
if iers</w>
f estiv▁al</w>
comm itte▁e</w>
beg an</w>
a▁n ks</w>
a▁ il</w>
ac les</w>
Univer s▁ity</w>
Tr ade</w>
Rus s▁ia</w>
Co▁un cil</w>
6 4</w>
▁t ea▁m</w>
▁s port</w>
▁s ight</w>
▁ren ov
▁re un
▁r ub
▁prov ed</w>
▁prefer entially</w>
▁o uter</w>
▁liqu or</w>
▁inf ected</w>
▁f o▁und</w>
▁er rors</w>
▁coun cil
▁conf idential</w>
▁ap art</w>
▁abol ished</w>
▁a fte▁r</w>
▁B or
▁6 0s</w>
web site</w>
w ro▁
w ook</w>
t▁ ion▁s</w>
th care</w>
s▁ ame</w>
rec og▁n
pr el
op▁ le</w>
oo d▁s</w>
l eme▁nt</w>
ind▁us try</w>
g roups</w>
ev ent
em en</w>
difficul ti▁es</w>
c▁r▁ea te</w>
c▁ ould</w>
c▁ .</w>
an d▁s</w>
administr atio▁n</w>
P▁ ar▁ty</w>
D r
A l▁
▁v alley</w>
▁st uck</w>
▁some where</w>
▁shut down</w>
▁s y
▁qu ota</w>
▁professi onals</w>
▁part nership</w>
▁inquir ies</w>
▁gl ad</w>
▁cho osing</w>
▁bas ketball</w>
▁adop tion</w>
▁Offic ial</w>
▁H ung
▁Chr ist</w>
tif ied</w>
re▁ce ive</w>
respon sib▁
ow ner</w>
or de▁r</w>
me th▁od</w>
iz ▁es</w>
it a▁n</w>
ip o</w>
inst all▁ed</w>
impo▁r t
hear i▁ng</w>
h w▁a</w>
h and▁ed</w>
h air</w>
es ity</w>
emb▁ ers</w>
ea▁ l</w>
e q▁u
co▁mp▁ any</w>
be▁ for▁e</w>
b out</w>
b ook
a▁n c▁e</w>
a▁ pe</w>
approv ▁al</w>
S a
R ep▁
Pr▁ o
C ar
▁w o▁n</w>
▁t ank</w>
▁prospec tive</w>
▁pres enting</w>
▁o▁ r</w>
▁necess ity</w>
▁mo▁n ey</w>
▁mar itime</w>
▁hy giene</w>
▁fr amework</w>
▁fin ds</w>
▁expec ting</w>
▁ch eer</w>
▁al ert</w>
▁abor tion</w>
▁S ales</w>
▁M a
▁Ky ung
z o▁ne</w>
tr▁ ation</w>
th▁ er▁e</w>
th ings</w>
th ese</w>
t as
s▁ing le</w>
st or▁es</w>
st ation</w>
rec o▁
op p▁ed</w>
on e▁s</w>
ob iles</w>
m▁ al</w>
mod el</w>
loc a▁l</w>
l em</w>
l egal</w>
l at▁er</w>
jud▁ g
j oo</w>
i▁r l</w>
indus tri▁es</w>
h an▁ds</w>
f▁ emale</w>
e▁ duc
es try</w>
ea ge</w>
cus▁ tom
com ed</w>
ari at</w>
ans i▁on</w>
Govern men▁t</w>
F l
Ch eon
▁vol ati
▁sur g
▁su its</w>
▁sever ely</w>
▁s eller</w>
▁r ing</w>
▁qu arantine</w>
▁fl ows</w>
▁ex trac
▁ch ap
▁bo ats</w>
▁be ings</w>
▁acqu ire</w>
▁accept ance</w>
▁Os aka</w>
▁G l
wi▁th o▁ut</w>
un ▁e</w>
um ption</w>
trav▁ el</w>
there of</w>
shi▁ ps</w>
ro▁ w</w>
real ity</w>
r u▁l
prom ot▁ed</w>
por ate</w>
our▁ ce</w>
l ation</w>
in ki▁ng</w>
id em
h▁av ing</w>
ex clus
contro l</w>
a▁ w</w>
ar ly</w>
Un ited</w>
St ation</w>
Se ocho</w>
Found ati▁on</w>
Educ atio▁n</w>
6 6</w>
▁u▁ p</w>
▁sea food</w>
▁postpon ed</w>
▁pen etr
▁occ asion</w>
▁l acking</w>
▁exam ining</w>
▁dr astically</w>
▁def eated</w>
▁dec ade</w>
▁d ressed</w>
▁cro ps</w>
▁ass ist</w>
▁Memor ial</w>
▁Manch ester</w>
▁M ob
▁Jeoll abuk</w>
▁J akarta</w>
▁I I</w>
▁B undang</w>
▁8 5</w>
▁200 1</w>
us s</w>
t▁ uring</w>
t▁ al</w>
su ffici
r▁ ev▁
p▁ o</w>
pr▁ is
promo ti▁ng</w>
pre pa▁re</w>
par ti
p et</w>
o▁n line</w>
our▁ s</w>
offic ▁er</w>
ick▁ ly</w>
fav or
ec ture</w>
c▁h arge</w>
b▁ ur▁
att ack</w>
am▁ a</w>
am ount</w>
▁tr ucks</w>
▁spec ifically</w>
▁prov isional</w>
▁preserv ed</w>
▁lif ting</w>
▁lea kage</w>
▁i ll</w>
▁hom ework</w>
▁dis tor
▁d oll</w>
▁cover ing</w>
▁calcul ating</w>
▁ar m</w>
▁Or ig
▁M icro
▁L os</w>
▁J o
▁G ochang</w>
▁Exper ience</w>
▁Dav id</w>
▁2 .
▁&ap▁os ▁
u▁n d
tig ious</w>
str▁ uc
seas o▁n</w>
red u▁c
purch a▁se</w>
ph ot▁
oth e▁rs</w>
organiz ation▁s</w>
of▁f ic
n t</w>
n eed▁ed</w>
m▁ ar
mul ti
jo▁ b</w>
iti g
ir▁ d</w>
fl ig▁ht</w>
e▁n ough</w>
br and</w>
arr ang
St at▁es</w>
13 ▁th</w>
11▁ th</w>
▁sk ill</w>
▁r o</w>
▁prot ested</w>
▁pregn ancy</w>
▁n eu
▁in scri
▁fea turing</w>
▁econom ies</w>
▁docum entary</w>
▁as leep</w>
▁a f▁ter</w>
▁W e
▁V R</w>
▁Se▁ oul</w>
▁O r</w>
▁L ifelong</w>
▁Ch ul</w>
▁C os
▁4 9</w>
wi▁ n</w>
wit zer
ul t▁s</w>
re pl
po▁ sed</w>
pop ular
oper▁ at▁ion</w>
on i▁ng</w>
oles c
m igr
it a▁ge</w>
eg un</w>
a▁ ir▁
an es</w>
Serv ic▁es</w>
J▁ap an</w>
G erm
F r▁ee</w>
201▁ 8</w>
▁weak ened</w>
[...]
